1E2F
1ECE
F150
B2A2
0C98
04CF
1F70
C72E
2D12
F57F
1E39
CBF9
F5B4
2A30
F7E3
F107
1F3C
2689
DAFC
D2A2
121C
1ED2
0BD1
1EDF
0755
0A21
1C50
CD69
12E7
C78D
2690
1178
F9D7
C64C
0B5E
F57A
07B5
26EE
CFA9
1226
B4E9
2855
0D17
2A02
EE9E
F88D
E160
EA0B
EE54
2AED
1C39
19E4
FDA1
C0DB
F965
F84D
103E
23BE
CEA5
0CD1
270F
154A
EC2C
20A0
EF34
F456
BC0D
D616
0D4A
19A1
BDCF
0EC2
F556
17BB
0144
F4D9
21C6
20DE
D290
1113
23DD
1433
10F2
D074
FFF7
0E69
2268
C34B
D0AD
236E
B96D
1408
0A72
271D
FD49
FDBA
1A6D
0505
F2F7
2309
