FF40
FE7E
FF01
FF59
FFB8
FF88
FF67
000F
FF31
FFF0
FF16
FF55
FF7B
FF09
FF75
FF95
FF25
FFC5
FF3B
FF34
FF6B
FFDB
FF65
FFAA
FF0C
FF54
FE55
FF36
FFA0
FF17
FF5E
FEAB
FEF6
FEEB
FF6E
FFAC
FF00
FF6F
FF74
FF23
009A
FED6
FFDE
FF3D
003C
FF84
FFB6
FEBD
FF23
FF12
FF32
FE9F
FF04
FEF1
FFB2
0006
FFB6
FF04
000A
FF3B
FF26
FF1F
FFAA
FF93
FFF6
FFD7
0225
0228
032F
031D
02A7
03C1
025F
0114
0124
00ED
0040
FFB3
FFD0
FFFD
FF0B
FEE9
FF82
FF14
FF3B
FF83
FEB4
FED1
FFD0
FF7D
FF87
0055
0115
00FC
033A
047D
052B
05E6
05EA
04A0
048B
03F6
032A
0247
0059
008A
FF8D
FFDA
FF6A
FEE1
000C
FF8B
FF65
FFB7
FF6A
FF09
FED4
FF0C
FF9A
004A
016A
02A7
04D4
0602
0777
0838
0956
09CA
073A
06BE
044B
02C3
00A5
00B5
FF9B
FE9F
FF47
FEE8
FF88
FF41
FEBA
FEC4
FFC1
FF2C
FF33
0043
007F
0163
027E
0527
069D
0990
0CD2
0C86
0FCD
0F6F
0E8F
0C05
08C9
0644
03CF
01AE
FF62
FE47
FE83
FF1B
0013
0001
FFBB
FF5C
FF13
FF4C
FEFE
0015
000B
01FB
0341
0432
06B4
0677
0896
0A3C
0AB8
0851
0770
05F9
0549
0506
03C9
0153
FFF0
00D8
FFBB
FFE5
FF7E
FF50
FEB5
FF5C
FE73
FED8
0001
FF01
FFC9
FFD2
0104
006A
0134
0101
0011
0153
01EF
00DA
FDB6
FC65
FD7E
FF00
00CD
0102
014D
0223
028B
01D1
0011
FEBB
FF20
FF34
FF6C
FE7A
FE84
FE99
FFC3
FE48
FEB0
FD69
FD1F
FAF1
F9B3
FAED
FDB7
FD27
FC1B
F900
F930
FBED
FD90
0046
029C
02AE
03B9
01D1
FFD7
FF3E
FFD3
FF2F
FEAB
FEFB
FDDF
FE37
FE0F
FCCD
FC83
FA35
F9C4
F8A3
F7D5
F991
FF10
FE47
FB12
F5AC
F5E0
F9CE
FC19
FE4E
0245
02B2
048D
0186
000D
0097
FF19
FF14
FEBE
FE68
FD2E
FD75
FD78
FC71
FC39
F884
F79F
F672
FAC7
FF92
05BB
FF33
F8E1
F118
F3F5
F724
FB61
FE33
0196
0368
0332
0108
FF0D
FF33
0029
FF56
FFCB
FD8F
FD2D
FB8A
FB02
FB0A
FA1E
F8C5
F991
FA2F
0056
07E3
08A8
00A8
F5BA
F1A1
F249
F754
FA4C
FE31
00C1
02C5
0293
008D
FF6D
FF71
FEDD
FF71
FEA0
FEAB
FC43
FBC9
FB79
F997
F92E
F8F3
FB69
FFB5
07EE
0CB0
0B6A
02F5
F657
F186
F149
F711
FCBA
0015
0344
02E3
01D0
FFDA
FF41
FF6A
FFD1
FFA4
FE0F
FE8E
FC68
FA53
FAB8
F84B
F967
F9D4
FCD5
053F
0815
0DE5
08B4
00D9
F745
EEB3
F228
F8EC
FC62
0015
02FD
0230
02CD
FF9E
FFA0
FF6F
FFA6
FFCA
FED4
FDFC
FC25
FA2F
F927
F6B7
F8D1
FB7F
FFC4
02E3
07B4
0AB7
076A
00E6
F5A1
ED52
F0BB
F78A
FB06
00A2
0209
022F
0108
004E
FF71
FF04
FFCC
FFAC
FE75
FEF4
FD3B
FB46
F898
F90A
F8A0
F9FD
FED0
FFEF
0479
075B
01D2
F9F8
EFB1
EC78
F2C4
F97C
FF87
00B5
0226
0290
01C2
FFCF
FF51
FF3F
FF3C
FE6F
FE50
FF47
FD95
FC2E
FB63
FA28
FBBE
FC9A
FE28
FE3D
012F
00D1
FCE5
F593
F094
F129
F7F1
0027
024B
03DE
03C6
02E1
01AB
00EC
FFFB
FF27
FEF8
FF46
FF3F
FEA2
FF9B
FE45
FD83
FE6B
FF2F
004C
037C
01C7
00F5
FF0C
F7B4
F2D6
F221
F93E
0128
055C
07FD
070A
0554
0406
01FB
FFF6
FF7C
FFC1
FF64
FFAB
FEFC
00B1
0139
01F9
026A
03AC
069B
0944
0AAF
0966
04EB
FF2E
F71D
F8E1
FE07
04F9
08EA
0B9B
0A69
0901
0687
0340
0126
003A
FF53
FF00
FFA0
FE83
FE96
00FA
01D1
03EE
0626
0995
0C6C
10E0
10AC
0FD8
096E
02A2
FE15
0201
06D4
0D39
0D40
0AD5
09F5
0848
04F7
02CD
00A8
FE99
FEF9
FF58
FECD
FE89
FFE6
009A
0288
0593
09BB
0C7B
0F58
11C5
106D
1116
0AF8
06D3
0655
0983
0A19
0D6C
0A28
09B5
0848
050E
0335
0109
0032
FF02
FFFB
FF7E
FFBB
FE9B
FF6B
00A6
02A2
0568
0995
0CEB
0CD3
0E1D
0E61
0C6B
0AB4
087B
0846
09FE
0A88
09A7
0868
0579
0515
029D
00C9
FFF2
FF7E
0029
FF5F
FF95
FEE6
FF94
FE79
FFC8
00D7
0363
078D
08FF
0A6F
0968
085D
0743
068D
08F5
0649
07B8
0450
040E
02EC
0206
01F4
00D5
0047
FED1
FEAF
FE31
FF61
FF9D
FF45
FF22
FFA8
FF42
008A
0186
0401
0456
05A2
0493
0566
06AC
08AB
067A
05FE
0557
0133
FF2C
FEB9
FD9B
FD95
FDF0
FE2B
FEDA
FF48
FE96
FFAC
FFD0
0010
FEF4
FF90
FF88
FF6B
FF50
FF38
FEE6
FF40
FE17
FFB7
006C
02DC
02C4
01CD
FF6E
FDA1
FBDA
FBAD
FC4D
FC28
FD9F
FE1D
FF26
FFDB
FEFA
FF11
FF4E
FE4F
FF87
FF81
FEE2
FEE1
FDED
FC35
FA77
F9D6
F969
F8AE
FA4B
F9AC
F9D2
F926
F9B8
FA49
FAC4
FB88
FCC0
FD3E
FD42
FE28
FE8F
FED9
FE9B
FF37
FF9F
FF12
FF35
FED8
FF5B
FF83
FDD9
FF08
FDD9
FCC8
FC2A
FCA7
FC3D
FBAE
FBE6
FC37
FC57
FC63
FD5D
FD76
FE3E
FEA0
FFE1
FE7D
FEAC
FEE7
FF6C
FFAE
FF0C
FF8F
FF8C
FEE7
FEA1
FFD2
0001
FF0B
FFB9
FF73
FE1D
FECD
FE4F
FE5F
FEE5
FEA1
FEB3
FE5C
FE4C
FF40
FEB4
FF0F
FF6E
FFB3
FF9A
FF44
FEB7
FF58
FEAA
FDD2
FE54
FDC3
FDBB
FEF3
FD27
FE16
FD3C
FE3D
FD61
FE01
FE0B
FE14
FDC7
FDE9
FD42
FE11
FD21
FD2F
FE25
FEA9
FD9D
FDC2
FE60
FDEC
FC9E
FE91
FDC2
FE49
FD44
FD04
FDA3
FD1E
FDE3
FEA3
FE07
FEB2
FD4D
FD34
FDFC
FECA
FD12
FDCC
FD0D
FDA3
FE17
FE9C
FDEF
FD1E
FCF5
FD15
FDFD
FD79
FD36
FE44
FD99
FE88
FD59
FDC9
FCD6
FD20
FCEF
FE07
FE48
FEBC
FE7F
FE04
FF53
FF57
FDFF
FEA3
FEC9
FDD6
FEA0
FEB9
FF30
FE56
FE10
FEC5
FEB0
FE0B
FDBD
FDB8
FD2F
FD84
FDF8
FE38
FCBA
FEA0
FDEA
FE78
FEDA
FE70
FFB3
017F
0241
02E7
015B
00D1
023B
0287
0259
019D
0196
0089
FF98
FF01
FEB9
FDEA
FDDC
FEC1
FE82
FE47
FE23
FD2A
FE3B
FD56
FE0A
FE84
0106
0162
02D9
049E
02F3
024D
0058
FFC5
011A
00F4
0163
FF78
FBF2
FC23
FA81
FBEE
FE2B
FE5C
FE41
FD63
FDDD
FDC0
FE3D
FE31
FE4A
FE25
FF5A
0097
0274
057A
076C
061F
0323
0097
FEC5
FE77
00D2
0264
02C9
FCFB
F968
F837
F7E0
FB72
FCFC
FF13
FF30
FE78
FD33
FEB5
FE48
FD50
FD85
FD8A
0026
0177
048A
07CF
095A
07B3
0723
04AA
0117
01A5
061B
050B
0495
FFDA
FE03
FAC8
FC67
FEB9
FEE6
FF82
FE8A
FED7
FD38
FE2C
FEC3
FE0A
FE6E
FE75
0065
020B
04E7
0848
0A9B
08E2
07E5
059E
047A
056E
0490
06A5
0797
041C
008C
01C6
017E
0236
021C
00A0
000F
FE0F
FE0E
FD50
FD81
FE89
FD88
FDC9
FFDC
0344
059E
08CE
09CF
09D2
08A2
054A
03A8
0121
0007
020D
0317
040D
033F
02CF
048D
04A1
02FE
01AA
FF8A
FF01
FD8F
FED4
FDBA
FCF3
FE93
FEC7
0122
030F
04A4
06A1
0902
092B
0719
063F
FF93
F839
F800
FBAC
0245
0360
065F
06F8
0548
0494
0371
00D8
000E
FE85
FD4D
FD45
FE10
FDD3
FDFC
FE96
FFD4
010D
02C5
0547
06F9
0A94
0946
0593
FBB9
EFA3
EF2D
F8D4
039A
06E4
048F
06D1
0674
03E3
0180
FE6B
FE29
FE5B
FD24
FDE4
FD27
FDB5
FE24
FF14
FFA0
0125
0247
04B3
06A4
0AD1
0AC3
04FD
F5F5
EB70
EDEA
FA3F
0419
049A
046A
0614
03B3
0216
FFD7
FF56
FE95
FD0F
FDA7
FD40
FD9F
FD51
FDCD
FE73
FDDE
00A5
01EB
0356
070A
0B62
0D21
02FC
F20E
E9C7
F07C
FB1A
072C
071C
065F
045A
0310
0099
00A7
FED1
FE70
FEF9
FE0A
FEB4
FDFD
FE90
FE9D
FE4A
FE53
FFEA
01D4
033E
0829
0D80
0F14
0189
EEB7
F01C
F16F
FEE6
0783
07F9
0756
0525
01FF
00DB
FF9A
FF36
FDD8
FE4D
FDCD
FEC7
FDDD
FE9A
FDE6
FD87
0047
FFF0
0133
0577
0A8A
0FC1
0E83
FFA4
EFBA
F196
F31E
0250
0BC8
0B9D
0779
0554
0234
FFC9
0091
FF28
FF07
FDAB
FCF2
FD27
FD5F
FD53
FD32
FE2F
FEAC
0143
0253
0557
0A7A
0D33
09E9
FCD2
F177
F14A
F79C
05D2
0C94
0AB1
07E3
0561
01A2
014C
0045
FFA3
FEB1
FEA0
FED3
FE22
FE6A
FD76
FE12
FEBB
0073
01BC
04B9
0748
0B6E
099A
066D
F96C
EFCD
F324
F849
0786
0BD9
0B4E
0914
0559
02D8
0198
00D0
01A1
FF70
FD77
FE2E
FE76
FDD8
FD47
FDAB
FF4F
00D9
03CE
0683
07E4
0742
04BB
0070
F928
F0BF
F332
FE45
088D
0BC6
0C18
0710
052D
0461
03E8
016E
FFD7
FEFC
FE1F
FE11
FD95
FD1E
FD4D
FD62
008F
0215
0555
07B9
06D9
0637
036D
00CC
F815
F38A
F886
0380
08B7
0A83
09FC
08B3
063E
0508
0375
02E3
01D5
FF35
FE1C
FD08
FD65
FDC1
FCF4
FE76
00C9
02BB
05DE
06EC
06E9
05C2
023F
0159
F9DF
F976
FD86
0411
07FC
0A79
0AA2
0922
07A2
06EE
05AA
030B
018D
FF24
FE39
FE03
FE40
FC9F
FDCE
FEFA
00EA
026E
057C
05AE
0622
033A
0262
034B
0125
FE33
0284
0500
057C
06ED
09CE
07A7
08A0
0640
0557
023D
0094
FE94
FE0F
FE1F
FD7A
FD8B
FE52
FDE5
FF16
011E
0174
037D
013C
026D
036F
06A2
05CF
044B
0398
0415
0305
041D
05AB
0790
06CC
0482
040C
016E
005A
FE4B
FE11
FDFE
FD0B
FD68
FE76
FDF6
FE07
FD86
FE1E
FF63
FD81
FF91
01B4
0614
0519
057F
01A1
FE3C
FBCF
FDFC
0255
0352
0371
032B
01E3
00CF
FE65
FDD0
FD70
FDD1
FDFD
FE2B
FE6F
FEA1
FD0A
FC73
FCBF
FB74
FA43
FD44
FE99
025B
02B8
00A0
FBCE
F9B2
F76B
FBC9
FE32
011A
0064
0007
FF60
FE9A
FE0E
FD52
FEBB
FE97
FD29
FE50
FD98
FE08
FD82
FDD8
FC64
FF11
00A1
00EA
0353
0401
0545
04E9
0236
0011
FF62
FEB6
FEBF
FE07
FE32
FE75
FDA7
FDE3
FE9D
FDE0
FDD5
FE46
FE98
FE85
FD65
FD4F
FE1E
FE75
FF6A
FFAA
0011
028C
02FC
03B5
0384
0254
025E
01E4
0020
FFB1
FF1D
FE09
FD7C
FE5D
FDA8
FEDE
FD2A
FCFE
FD20
FD2A
FE22
FEFD
FD9D
FE02
FE3D
FF1D
FE03
FE51
FE30
0037
FFA3
007D
FFA8
0008
FFCB
FEDB
FF4C
FF22
FDE7
FDB4
FEC4
FE79
FDD6
FDBA
FE72
FD2E
FDE3
FE4B
FD38
FE68
FD74
FCF5
FC95
FDCE
FE1E
FE8F
FDB2
FDC9
FE97
FE4B
FEFF
FDE3
FDCF
FDAD
FEAB
FE0B
FEF6
FE5A
FDF5
FDC0
FDA7
FE93
FE3B
FD57
FE27
FD74
FD09
FBC6
FD50
FDE5
FCDC
FEC4
FEB3
FBB4
FD77
FBAE
FD66
FB8C
FB99
FA5C
FF02
FE3E
FCBB
FB74
FCEA
FF0D
FB11
FE80
FCB2
FC29
FB01
FAE0
FB4E
FD85
FA7F
FAF6
FE86
FB1A
FBA2
FEE9
FBC3
FCD4
FC5C
FAE5
FE8B
FB2C
FCCE
FB35
FAF9
FAE8
FF3C
FCE2
FB36
FE17
FDB6
FA69
FCBF
FBD7
FB3D
FBE5
FA75
FEE7
FD9E
FC1C
FC6E
FA89
FED3
FF05
FCFE
FD10
FD10
FC27
FD68
FE06
FEAB
FE45
FACE
FA3E
FBE7
FE58
FA88
FCDD
FAFE
FE92
FD22
FC4B
FA64
FBA2
FE86
FC66
FE10
FD25
FDD0
FDD5
FAA7
FCF3
FB12
FEB6
FBD6
FB43
FD10
FBD7
FB0A
FC2E
FC73
FCFC
FAE5
F9D1
FC55
FAE1
FA74
FAF7
FC26
FF02
FB14
FDF0
FC7F
FD15
FCA6
FB5E
FC06
FC6E
FC0B
FC3F
FED8
FE3A
FD6B
FABA
FB45
FE9B
FA22
FE34
FCD1
FAEE
FA83
FB73
FC25
FCB4
FA6A
FAB8
FEB8
FCA2
FE2A
FAD1
FCA6
FDF1
FCC2
FBED
FEA3
FB7D
FCCE
FD61
FAD8
FB63
FC68
FEB3
FFCB
FC21
FC1D
FC15
FDF4
FC70
FD64
FC9F
FBCE
FC40
FBCA
FAFB
FACB
FE42
FF2B
FBE0
FF1F
FD17
FDBC
FAFD
FC7A
FE33
FB94
FB18
FCBA
FC2D
FBBE
FD5A
FC4C
FF60
FD7B
FEC4
FFD4
FE7C
FCEF
FD95
FCDF
0102
FC74
FD7D
FFE4
FD63
FBA9
FC5B
FCE9
FB4E
FB6A
FC4C
FB26
FD15
FD11
FB8C
FDA8
FD14
FD8F
FC0C
FFF8
FCE5
FD24
FC60
FCF9
FACD
FDEC
FBED
FCF2
FE12
0053
FF46
FF59
FF40
FB60
FC7F
FC7E
FCD4
FC4A
FE87
FD19
FDF8
FCB5
FACE
FD0E
FC67
FC18
FC82
FE22
FB54
FDAD
FC33
FD7C
FC4C
FAF9
FC7D
FC9A
0060
FDC7
FF5C
FEA4
FD86
FC93
FE4E
FB02
FBE4
FDD4
FD4F
FF17
FD51
FD2F
FB1C
FCD7
FBC9
FD88
FDB8
FD84
FD95
FD7F
FDB4
FB4C
FC28
FD4D
FFFF
FFBC
FDD9
FC40
FD99
FBC2
FABD
FD50
FC31
FF4D
FAE9
FDAA
FB71
FAAB
FEBC
FC31
FD51
FEA4
FB94
FD81
FF06
FDDC
FC88
FAB5
FDE5
FDF4
FD05
FAB4
FF6D
010D
FEF6
FD0F
FB9A
FAE1
FCE1
FD5E
FBAD
FAB9
FB33
FC66
FA70
FE6A
FB8F
FBA5
FB63
FCBF
FD53
FED7
FE7C
FF0D
FCF2
FDD2
FB2F
FD2E
FDF9
FEC0
00BC
0288
00ED
FF8D
FE6D
FA76
FE28
FC7B
FD0B
FB57
FB4B
FC02
FB14
FD9D
FB73
FE19
FDB4
FB7A
FC74
FB4C
FEDD
FB45
FAD7
FD80
FCC4
FD25
FC8A
FED2
003A
0045
FDB0
FA97
FD55
FC80
FA9B
FD50
FAFD
FCF0
FBF7
FAF5
FE80
FD59
FB52
FB49
FBE2
FE75
FE45
FB3D
FE1E
FEDD
FD0B
FC4A
0067
FEE8
FD99
FE44
0239
FF84
FC77
FBD5
FA41
FD0E
FBF1
FDA9
FB0A
FBC6
FA5F
FE9F
FE56
FACB
FDDB
FB1C
FCF2
FD11
FDDA
FD96
FDE5
FDC6
0277
02A2
0299
002E
FF03
FEF2
FE18
FEED
FE45
FC0E
FBF9
FD47
FC0E
FD8E
FCBF
FC7C
FD94
FC1D
FC55
FEF5
FC40
FED7
FE68
FB5B
FACD
FA9C
FAC4
FEF0
0816
061D
04FE
FFF4
000F
00BC
FFF3
FE77
FB1C
FAA9
FAAB
FAAE
FA58
FD73
FD66
FAFF
FEA3
FA63
FE70
FD5D
FDCD
FAE4
FD11
FB3E
FC5E
FC7F
FD66
0003
0862
05B8
00C9
FEA0
FF5C
FFA3
006D
FC5D
FC5B
F981
FBBD
FA86
FD88
FDBB
FD53
FD65
FB4B
FCB6
FA9A
FE26
FEC2
FCF0
FA42
FD9E
FADB
FC45
FBB2
FF6A
013B
FF8B
FEDF
0087
016B
FE49
005D
FB8B
FC54
FBEC
FA56
FCB3
FBA0
FC3E
FC46
FB85
FD46
FDBA
FBA5
FC11
FA63
FE4C
FE98
FC36
FAB4
FB25
FA43
FD63
FDE1
FF00
FE88
FE99
FCAF
FE78
FE7A
FCE3
F929
FA5C
F961
FAC9
FB6B
FBA8
FCB7
FA8C
FD8C
FE65
FBE5
FD2A
FC46
FF23
FB95
FB2A
FC3F
FE7F
FDFC
FC5E
FD74
FC92
FAF1
FCA8
FEBE
FCB0
FCC5
FC3F
FD30
F998
FD10
FB2F
FADC
FB86
FE92
FE02
FEF6
FE32
FBFA
FD00
FEF2
FABC
FD06
FD8A
FB29
FCC3
FEBF
FE0B
FAFD
FB74
FB29
FE2C
FAAD
FC05
FDC8
FDDC
FAAE
FAAE
FCFD
FAB3
FEA0
FC25
FDEF
FE1A
FC9C
FE82
FD0C
FECA
FC40
FB60
FD82
FC95
FDAB
FE0F
FA6F
FB8F
FDFF
FCD2
FB0D
FB05
FE13
FCE4
FBB2
FB03
FB3E
FC8C
FE5A
FF68
FDEB
FD9C
FDC7
FC6D
FCD9
FDB2
FB71
FE25
FBA5
FED8
FA54
FDB3
FCF9
FC1B
FEEF
FBB6
FDEE
FAC1
FB66
FE32
FB29
FFA8
FF15
006E
FCA4
FFB5
FDF1
FF4A
FEC3
FDD0
FE7A
FD34
FB49
FB31
FDA0
FCA7
FE82
FD58
FD7A
FC25
FEF0
FDA5
FE5E
FED4
FD70
FBB3
FC9C
FF14
FF2C
00CD
0148
FCEF
0051
FD66
FC33
FD95
FB92
FBDC
FB77
FCA9
FB62
FDB4
FEB4
FABB
FA89
FF27
FC8E
FB7E
FE1C
FF19
FD32
FCD1
FBFF
FBD2
FE1E
FC1D
FCF6
FDB4
FE76
FFF0
FF91
FBD3
FD29
FC44
FBE6
FD11
FCC5
FDB3
FC8C
FD40
FD6A
FB8B
FE07
FB22
FC3E
FA80
FA7C
FD1D
FBF7
FE20
FEBF
FE7D
FCCA
FE22
FC2F
FC0C
FB3C
FE6F
FC72
FAC4
FAB7
FA54
FE13
FE2C
FAE7
FB0E
FC3C
FC2F
FB64
FAE2
FD1E
FE80
FB6C
FE04
FB31
FAF7
FB5E
FD2C
FCE7
FCD0
FCAF
FCD3
FC40
FE5D
FC2E
FCF0
FB40
FBCA
FEC8
FC20
FBB0
FB39
FAAE
FA9B
FED8
FE62
FEB1
FEA1
FD26
FEA9
FCEA
FC81
FE20
FE2C
FDCB
FE00
FD18
FE09
FDFB
FAE0
FDCF
FD80
FA4F
FB49
FAFC
FAB3
FD29
FC37
FB43
FEA3
FB63
FC1C
FDBD
01BC
0188
02B4
01D3
0102
01C7
013A
0157
0199
01D6
0213
018B
0224
01C8
01B2
0180
015B
00DF
01F9
01EC
01BA
01A2
0169
01C8
01ED
012D
016B
01F1
0154
019B
012B
00D5
024A
022E
019C
01A7
00F0
01D6
021A
024F
01D4
01DB
0150
0261
01DF
0195
01DF
01CC
00E4
0291
01A1
019E
029B
0272
01EF
0185
022D
023E
01E8
01B5
021A
0151
016B
021B
01BE
01FE
0187
0269
0243
0296
02CB
0420
029A
038F
02E2
0265
029A
019D
018D
0229
016E
01D6
018B
016C
01B8
0190
01CF
021D
0175
01F2
01F2
01B0
01E7
02D3
0330
02F2
04A8
0516
05A6
0662
083F
08C0
0769
060E
0503
0407
0309
020F
0257
021D
020A
01D9
00ED
01D6
00ED
0175
0131
0208
0286
02E7
0347
0374
04F2
047C
05DC
06DE
07A2
06FF
087C
0912
0935
07E8
06B2
0499
01E9
015B
01A6
01D1
00FC
0161
019B
0139
0153
018C
0197
016E
0156
01F7
00FF
0026
FFEA
FDF3
FA46
F820
F76A
F85E
FA07
FB32
FE33
FFC2
FFB2
FFB7
FF44
FF62
FFF3
010D
0196
0133
0240
01A1
00D1
0233
014D
FFFF
000E
FFB6
FED7
FCBD
F988
F6B6
F639
F57C
F648
F4EE
F65B
F921
FA26
FAFE
FA18
F9C9
F9C7
FAB0
FC07
FE7E
015C
017A
0266
016E
018F
01CE
FFA2
FF6F
FFA0
0034
FDD7
FB13
F956
F9CA
F8C7
FC3B
FB37
FC5C
FB77
F8AE
F7B4
F965
F89B
F625
F456
F5EA
F81D
FC6B
FF92
021A
0228
0188
01B0
01CC
014B
011F
FFF5
0040
FEA8
FDD5
FDC5
FC5A
FF11
FFB5
0021
FFF8
FED9
FBAC
F8B2
F7B7
F6F3
F45F
F3AF
F3CE
F616
FB90
0099
0271
011F
025A
017D
021E
013D
0132
009A
FF0E
FEA5
FEF2
0069
005F
FEAD
000D
0071
01F7
FEB5
FDF5
FBAF
FA10
F5D0
F520
F400
F415
F778
FBB6
002C
00D1
0153
01CA
01B7
029E
0315
01F6
00FF
00B7
0061
00A8
FF21
FB7F
F96E
FA88
FDD5
015D
00B4
00A8
0096
FC6C
FA2E
F8C3
F836
F644
FA78
FEC6
0102
0191
0225
01E9
01B3
0219
0225
0138
0139
0177
01E2
0091
FA32
F228
F054
F2D8
FB3D
01EB
039A
0570
0582
055D
014A
FE32
FACA
FAAC
FD63
00B0
0167
016E
0209
0199
0290
0281
02DB
0130
013F
014A
007F
FCD7
F576
ECF1
EAD9
F354
FF25
03C1
07D7
083A
0BBB
08CB
0663
00AF
FDC1
FC84
FDE7
01B6
017D
01B2
0294
0237
01BB
01D7
02EF
00B3
01F8
026B
0151
FDEF
F500
ED6A
EDA4
F7A2
FFB1
07B9
08EF
0909
0AD5
0B9E
07D1
0269
FE1C
FE3F
FF0B
01DC
0125
014C
01A5
0239
01FB
0200
0271
00BD
01DE
030B
021C
FF55
F9D7
F4C5
F8F9
00C1
07E3
09FA
0AF0
09EC
0BBF
0A49
0580
008E
FEC2
FE3C
FF77
0206
018F
016C
019E
0136
0172
026D
018C
00BF
02EC
0435
0573
043F
0256
0088
021F
06EA
0C93
0FAC
0A79
0982
0A1D
03E6
FF8F
FF55
FE43
FEB2
0070
01CF
0209
0250
01CC
022F
0233
024F
0147
FEA9
024B
038A
0576
07C1
07F4
064A
0839
0CF1
10BE
0F05
0AA1
059E
01ED
FED1
FC16
FD3F
FE7C
FF46
010C
0303
014C
0192
0145
0122
01CC
00BE
FF65
FE84
FE99
008F
0440
062E
06DF
09BB
0BE6
0FC1
12B8
0E51
0593
FF13
FB86
FC19
FCFE
FD33
FE0B
00BC
030A
032F
0114
01FC
00E3
0138
0135
014A
FFA8
FBF4
FB6D
FC2C
FE98
017D
04F3
070C
0CF0
115B
0FAA
0A78
0196
FD8E
FADB
FB68
FEC7
FFCC
0081
0368
0412
039B
02BD
01E9
010A
0195
0198
0084
FE53
FAD9
F7E6
F60E
F8F9
FC41
FDEC
035F
094A
0CC6
0E4B
08DC
0212
FCEF
FBCE
FD61
FFB7
00B4
02DC
050B
04B6
03BA
01DD
0101
0313
01AA
013E
0105
FF2A
FB12
F80F
F555
F3B2
F44C
F825
FFCD
0581
08ED
0A10
0663
FF67
FCCA
FEE5
FFB7
0110
017A
04E7
04A4
04C1
0334
01BE
019E
0199
019D
010D
01E0
004E
FD46
F998
F694
F58D
F3E0
F242
F6E7
FB0C
FFF2
FDCD
FCC5
FAE0
FB81
FE25
FD8E
FF7C
032A
045A
0452
03F5
0208
01E9
01D1
0114
0163
0183
01B0
0157
FEAF
FB69
F8D4
F78A
F3C1
F2A3
F0A8
EF1E
F210
F2F6
F5E7
F8B2
F828
FADD
FD5A
002D
0368
02BE
03FA
0312
01B9
01AC
01A9
0148
01F4
0110
020E
00B5
00C6
FD12
FBE7
F901
F81E
F319
EE98
EBB2
EB4C
EDC4
F11A
F4FD
F802
FB28
FE6A
0111
02AD
0324
02B6
02AA
0226
01E7
0236
0203
0263
01C3
015E
010B
0099
0071
FDE1
FD90
FC27
FB37
F9B2
F73E
F70E
F9C5
FB33
FCA6
FED3
FF31
0035
01AF
0234
0200
027B
01B3
029B
01AF
0271
0269
017D
0212
01B5
01EF
01F4
028D
0398
0438
04E0
06D3
06D1
073C
073B
05ED
0608
052C
05D2
0462
0272
0272
0294
01BD
0283
01B1
01F7
01BD
020A
0198
013E
027B
01C7
018B
01C7
02F1
02A3
0446
0421
059A
059E
059C
0542
0504
0546
03E4
0376
027F
0325
01F1
0129
01FB
01FA
0134
022F
0167
0114
01FD
0143
01E7
0137
00C4
01C0
01CE
01C7
0130
01D4
0204
0239
0177
02CB
02BE
01AC
020F
022F
0123
016D
01F2
0214
017F
0175
0236
01C2
0199
018D
FD12
FCF5
FB97
FE57
FD2E
FC9B
FCF0
FC41
FEF7
FE59
FD43
FDF7
FC9B
FA89
FEAA
FF30
FCEC
FC1C
FE1D
FE93
FE69
FE64
FEEF
FB54
FCAD
FD6C
FBFC
FE67
FC1A
FDBD
FDE5
FDDE
FD1D
FC80
FAE0
FCDD
FDB5
FDC7
FC2B
FDCA
FBB3
FA4D
FA4B
FB4A
FCE3
FAE8
FBB2
FDAE
FCB3
FE25
FBEE
FE07
FD0A
FB61
FD57
FCA6
FC06
F9B7
FE7B
FED3
FB90
FDA6
FD71
FE7A
FC9A
FE56
FBA2
FB78
FEF3
FCC2
FDAC
FAEC
FD45
FE4B
FD0A
FAB5
FBDE
FBC1
FCC7
FB2A
FE1B
FE6E
FD46
FC6B
FB4F
FE4D
FCD8
FD7F
FAA7
FC63
FC5A
FC4F
FE61
FD6A
FD4E
FB79
F9E7
F926
FB28
FD68
FD35
FA02
FEBC
FD22
FCC4
FABF
FCB4
FC38
FF31
FBBF
FC21
FB04
FB75
FC95
FB6E
FF03
FD72
FC16
FF36
FC48
FC3B
FC4D
FBE6
FCFD
FE02
FB86
FCA6
FE43
FA5B
FCDD
FB9D
FD1D
FD89
FA64
FAF7
FCED
FE35
FC1B
FBDF
FEB7
FD03
FD23
FCE9
FCFD
FDFC
FAAD
FD19
FED2
FC97
FE1A
F95F
FD0C
FCA9
FC20
FC3F
FDEF
FCB8
FB4D
FE82
FD25
FB2E
FCFF
FDBC
FE64
FDD2
FE8D
FE4A
FAF6
FC5B
FE0B
FDD3
FDB4
FD2C
FC28
FE34
FBFB
FD84
FF88
FC1A
FC45
FC08
FF5C
FEC9
FB00
FB30
FE5E
FF91
FFA2
FF81
FB19
FEA0
FC5D
FA9C
FB79
FB43
FF52
FBEC
FCC2
FD23
FB17
FBF1
FDF1
FBFC
FC44
FEB2
FF34
FBFE
FB59
FAEC
FB1F
FBA0
FEBB
FCAA
FB79
FD57
FD4A
FE06
FE5A
FDFC
FAF1
FC24
FE64
FBF9
FEDF
FA9C
FACF
FC48
FD2D
FDD4
FEF9
FB50
FB5D
FCB9
FC90
FC42
FDAE
FF07
FD1A
FBE0
FDFB
FC49
0047
FF45
0067
FC27
FC40
FBC6
FB79
FDF4
FCE7
FD10
FCBF
FB60
FC3D
FC8D
FBED
FBA5
FB68
FAAE
FD9E
FAA8
FB86
FC2C
FB80
FECC
FBB1
FACF
FE5F
FBFC
005B
FF7C
FDC8
FFF2
FED7
FBDA
FC19
FD86
FBB1
FED5
FAE2
FCDB
FCA1
FF1F
FCDF
FD59
FDB1
FEDA
FB6A
FE28
FA6E
FC67
FCE6
FD0D
FE85
FDAD
FEC7
FBB6
FF84
FEC2
FF78
FE21
FF12
FA91
FADC
FCEA
FDB6
FCAF
FB40
FB55
FE61
FB96
FC27
FD84
FDC8
FD36
FD93
FC09
FC5F
FDB5
FE9D
FD54
FE07
FDCB
FE16
FAB7
FB7B
FD84
FD80
FE29
FC0B
FBDB
FCA9
FCC0
FDB8
FD8A
FB59
FCBE
FC1F
FBFE
FF31
FAFD
FDBE
FE64
FE91
FE75
FB83
FEBF
FB99
FDA5
FD37
FA70
FB01
FC2B
FDCE
FD99
FB25
FDEB
FDDA
FAEB
F9FB
FB8A
FEA9
FAE7
FAC0
FEDB
FA9C
FC75
FB24
FBBB
FBDE
FB33
FAFC
FC6B
FCA8
FBD7
FD6E
FF26
FE57
FA4F
FDA4
FB94
FE8B
FB9E
F96B
FAAA
FE4F
FF48
FB0E
FB38
FB35
FD74
FE6E
FC5A
FEA1
FA0F
FC4B
FC81
FBAB
FB6A
FE35
FC16
FD08
FAA6
FE97
FDCD
FABE
FBB9
FA48
FD13
FBA9
FB47
FCB7
FB13
FD1E
FB91
FE3F
FEE2
FBBC
FB62
FC0E
FD22
FBD7
FE9F
FA91
FC98
FD12
FC80
FAE8
FD12
FA81
FC83
FEBA
FBC9
FC63
FBD2
FE7D
FBEF
FB0C
FB22
FEB6
FE9E
FD1A
FC0B
FAAC
FD96
FCE3
FE04
FEA0
FD33
FDD4
FAEE
FAF1
FDDD
FD83
FDB5
FD1D
FA8B
FA0D
FDAF
FACF
FD7D
FCCC
FC5C
FEA7
FF38
FA84
FEE0
FC24
FA7F
FAAB
FC93
FDF0
FDB6
FD9F
FB31
FDB0
FB4B
FE64
FCDE
FB07
FC60
FF3E
FB20
FD69
FC17
FD2A
FB59
FDBC
FD21
FCDD
FE34
FBB5
FAB1
FEE9
FC6E
FA11
FC7D
F9F3
FD0D
FC18
FE46
FD71
FE4D
FECF
FE09
FDEB
FA9F
FE82
FC00
FFAC
FDC5
FC1C
F941
FABA
FA40
FD15
FA50
FE6D
FC1A
FDBA
FBCD
FE23
FDA9
F8BC
FE5D
FECB
FE27
FEF9
FE1A
FC03
FD16
FF17
FCB2
FC70
FDAF
FD4B
FB13
FF3E
FC97
FD4F
FB0A
FC4C
FCF4
FAC3
FD30
FC4A
FDED
FDEB
FB7B
FE1A
FCFE
FE80
FCE5
FAD1
FF2E
FC0B
F990
FEF6
FDB0
FC61
FE97
FB4E
FE00
F9F9
FC10
FE68
FF68
FCC5
FDB4
F9D6
F981
FD2B
FC48
FE94
FC7A
FDCF
FA54
FBFB
FD60
FBF8
FDC4
FD43
FBA7
FDC2
FF34
FAF9
FF19
FE28
FB3F
FC90
FC51
FB10
FDBD
FA80
FE1F
FDB8
FDB7
FC3D
FC40
FC69
FDFF
FEC2
FDA5
FA79
FB5A
FDA1
FB9C
FFB3
FBDF
FC7A
FB44
FD4C
FC4B
FC5C
FA68
FF72
FB96
FDA6
FF0D
FE6B
FD3B
FDDA
FBCF
FFE6
FE19
FD9C
FF27
FDDE
FDE8
FB58
FF4F
FBC3
FD3F
FEE4
FD24
FCEF
FD9F
FAF3
FE2E
FEB0
FBA6
FE30
FB41
FDDF
FE3E
FF40
FE73
FD14
FE1A
FBAA
FB34
FFCE
FDA7
FE9D
FB81
FD69
FF4A
FEDA
FCDD
FF44
FE83
FC93
FE79
FD9B
FAF8
FE6C
FC10
FC43
FB21
FD7E
FED6
FC7E
FAD6
FA75
FC5F
FBB1
FBC5
FB80
FD96
FDAB
FEDB
FD71
FDF9
FEA8
FC5D
FEEC
FB2A
FB74
FC1A
FBFD
FB59
FBF1
FA99
FB7D
FB2B
FEE3
FE0B
FB82
FCC0
FB29
FB68
FE71
FE4F
FB21
FE6F
FC41
FC8C
FC93
FB93
FF2E
FB81
FD48
FEC7
FEB7
FA44
FCD2
FDAC
FAFB
FE69
FC28
FCFD
FABB
FEF6
FAA8
FE8C
FD68
FC2D
FEAE
FB8C
FA6D
FA4F
FB73
FBA3
FB81
FE40
FC98
FDB4
FCF1
FB91
FB4A
FE02
FCF7
FEC5
FB1F
FA45
FED4
FBBC
FBBA
FC0D
FE18
FE35
FB7F
F996
FE84
FC88
FE76
FAAC
FAC2
FC24
FABB
FD15
FE7D
FEBD
FE0F
FC71
FC60
FC38
FB76
FADA
FE8E
FE57
FF14
FF90
FE7C
FD6C
FF31
FE88
FD55
FE60
FEBD
FEE1
FD1A
FDB8
FB0A
FE39
FB97
F9DD
FCA7
FADF
FA5E
FDDA
FCF3
FA92
FD6D
FAA1
FD79
FD4A
FC2B
FC61
F9C8
FB27
FA0F
FA71
FCB6
FA9C
FD1A
FD93
FB11
FC7F
F994
FADC
FDDD
FAFD
FC4D
FB16
FDB5
FC97
FA2C
FD3F
FA52
FDDE
FAC7
FD65
FD39
FDEA
FB71
FBCE
FC29
FDBA
FD46
FA85
FAF7
FB99
FAA3
FC5D
FA8E
FE0C
FAE0
FD6C
FD19
FC6B
F9EA
FC61
FB6B
FC3B
FB68
FCB7
FDBC
FD4D
FBC1
FB7E
FAA0
FB42
F9BA
FBAF
FB65
F85B
FABE
FCA2
F9DA
FAE7
FC6C
FCD5
FA60
FBF5
FB9A
FC12
FAE8
FA6B
FB7D
FE16
FDA5
FB76
FB94
FAE2
FC09
FBFD
FB08
FACD
FAFE
FB82
FC9F
FAB5
FA46
F966
FC49
FDB0
FBAC
FD7F
F918
FA8B
FE38
FB02
FB35
FD79
FD9D
FE0D
FCDF
FCD4
FE22
F95A
F8E8
F9ED
FD06
FBFE
FAFB
F8C7
F9BF
F983
FC43
F9C4
FCEC
F89A
F7C2
FBD9
FAB7
FDBB
F999
FC31
FDF4
FE0C
FA21
FBD0
FB93
FDCE
FC87
FD3F
FDB1
FC3C
FD79
FC11
FB81
FA1E
FC3F
FD75
F92B
F87F
F979
FC3A
F9B9
FB11
FA2D
FA3C
FCFD
FD2C
F968
FAAE
FD78
FA7B
FE11
FB5C
FDD5
FA25
FB88
FC8D
FA9E
F9E7
FA08
FB7B
F98B
F919
FB8E
FD29
FB08
FCCE
FD1A
FC4B
FC60
F8AA
FA74
F8E9
F84C
FB6B
FAC0
F9D9
FA1F
FCC2
FD2A
FCFE
FA40
FD51
FB82
F985
FBD6
FD70
FA56
FB24
FAD3
FCA3
FBBB
FC5A
FA09
FAA0
FC3E
FC6B
F9F0
FD54
FB7F
FA2B
F9A8
F9DE
FC7F
FB3D
FBFF
FB3A
F9B5
FC92
FA97
FDC1
FD43
FD77
FC63
FAF0
FC26
FD0F
FC15
FD4B
FA95
FC2D
FBFC
FC3A
FDA2
FD5D
FE69
FA51
FCF5
FC61
FDED
F91C
FA89
FCDA
FB0A
FCAF
FB70
FAC7
FCA2
FC7B
FB06
FCBC
FCDC
FDF2
FADB
FBB2
FE15
FBCB
FB37
FD24
FDAE
FCD1
FE0E
F9E2
FE1F
FC88
FE2F
FD35
FDAB
FA83
FBA6
FB64
FB48
FB9F
FD02
FA90
FC28
FE01
F98C
FDA6
FE63
FB1E
FBF6
FB3E
FCB5
FDC5
FBF0
FA31
FBB1
FC48
F9EB
FC06
FB74
FD90
FB96
FB87
FE09
FA34
FD52
FBAA
FB2F
FC85
FCBD
FE3B
FB14
FC8A
FD2D
FA2B
FD0F
FCA7
FC0A
FDF3
FB7D
FBDC
FD27
F9AA
FDCB
FD62
FC05
FCF5
FD7B
FA00
FA55
FCAD
FB4E
F9D6
FE32
F947
F928
FBD1
F9CF
FC4A
FC63
FA5A
FACD
FE28
FD6A
FDA7
FBE4
FD0E
FDB5
F9E6
FCBA
FBD0
F9E6
FB69
FA9B
FC0C
FA72
FA4C
FD4F
FC6D
FAD4
FC68
F8DE
FAC0
FCF6
FD01
FCA8
FE2F
FBEB
FE0B
FB1D
FCB0
FABE
FD0C
FDF3
FC1B
F92D
FC53
F96D
FA40
FC7E
FC7F
FA1C
FC26
FBEF
F97C
FD20
FA4D
FBF6
FC52
FD22
F9DE
FC02
F9BF
FB72
FBEF
FC55
FE3F
F993
F9FD
FCF8
FD2A
FD3C
FBE3
FD7E
FBF6
F812
FB01
FA62
FD99
FB83
F9B4
FA6C
FCD5
FAB4
F9C7
FB5B
FC8E
F897
F8B3
FB35
FCB5
FD7B
FA48
FDD7
FB13
FA60
FC93
FE44
FD58
FC73
FC0B
F96E
FB7D
FAFE
FB62
FB1C
FD0D
FB79
FDCA
FA86
FD52
FC78
FA86
FBCA
F92B
FA9B
FA41
F9F6
FDA2
FAA5
FC43
FB3F
FD80
FAE5
FBC4
FC83
FDB5
FB22
FBC4
F9DA
F8B2
F7DC
F90F
FB00
FCCC
FB65
FAB6
FB1F
FD8F
FA68
FD8E
F9CD
F71D
F9E0
F802
FAAA
FCD5
FAA5
FA60
FCD5
FDC7
FA82
FA75
FCBD
FB49
F855
F87B
F6ED
FB80
F98B
FA52
F9C6
FDF8
FC0F
FE0B
FB6C
FE47
FE15
FB46
F99E
FBFE
FCCA
FB8E
FC9E
FADD
FB14
F99E
FDB2
FCB4
F945
FA6B
FA52
FB98
FD18
FCAE
F892
FB80
FB7A
FB32
FA3D
FCA2
FAB4
FA3F
FD2A
FB60
F93C
FAE8
F800
F8AD
FBDB
FBDF
FDA9
FD8B
FAF5
F94F
FBFD
FD6E
FD95
FD6A
FB97
F969
FB8C
FC8B
FD05
FC82
FBB0
FC5F
FCA1
FD1A
FBF0
FB7D
FB29
FA41
F905
FB5A
F824
FA61
F98C
F97A
FC8E
FB79
F91B
F9EE
FBBC
FBA8
FB43
FBF5
FAEB
FAC8
FCA4
FB41
FD32
F962
F949
F8FA
FB19
FDD2
FC6C
FD4B
FA46
FA59
FA30
F87E
FAD5
FC29
FA0E
FA8A
FB40
FB52
FB6C
FC07
FD57
F98D
FC26
FAAC
FC95
F930
FB0E
FB05
FC25
F8CB
F8F1
FAB8
FA4A
FD46
F9F3
FBD0
FC67
FD62
F9F2
FD10
FAFE
F9E8
FB76
FBC8
FA73
FC79
FA09
FD3D
F97A
FC8B
F9E1
FDBD
FD20
F9C7
F9DB
FCA0
FB1B
FB82
F931
FB70
FC51
FD28
FD33
FB43
FAC2
FA78
FBB6
FB9A
FCD7
F9DE
FD66
FA62
F8D5
FB5D
FBF6
F9D3
FB44
FC1C
FB5C
FCA5
FD9C
FB04
FA39
F918
FC91
FC1E
FC9C
FAFA
FAC8
FC28
FADA
FA9F
FA2A
FA7F
FB2D
FBCE
FC1D
FDBB
F9FA
FA3D
FCB4
FCAB
F9BD
FCCD
F9CC
FCEC
FCF7
FB33
F9A0
FE7B
FAD8
FA50
FB3F
FA28
FADF
FB2D
FDFE
FAEF
FDFB
FC4D
FB6C
FE4F
FDCF
F9F9
FC98
FAF0
FC6C
F9D7
FBBD
F9E3
FAA4
FABC
FC13
FAD1
FBC5
FD20
FDCD
FC92
FA43
FD9A
F98A
FCFE
FC97
FD2A
FE29
FB7C
FC2D
F9C4
FE65
FE2F
FAD0
FAEA
FE06
F9E8
FC07
FB3F
FAEB
FBBF
FA76
FDB3
FB6E
FC3F
FBFB
FACE
FCE2
FB1A
FC63
FDDC
FAB1
FE09
FAB8
FC7A
FE15
FB47
FD39
FBE8
FD2B
FAFE
FC80
FC9A
FC55
F994
FBA7
FBF6
FCED
F8A8
FB06
FA03
FAFC
FC3C
FD0A
FD99
FE23
FDC8
FCA4
FAF4
FD39
FC40
F8CE
FB17
F9E8
FB1C
FA75
FA0A
FAA4
F9EF
FA0A
F980
FA8B
F9B4
FCD8
FD84
FCFC
FC73
FA56
FB34
FD6F
FF74
FFDC
FF8B
FF81
FE8B
FF7D
FEC1
0023
FFA5
0013
FF3C
FFE1
005E
FECD
FF3E
FFAD
FEE7
004D
0093
004B
FF7A
FFD3
FFB6
FF7D
003D
FFC3
FFED
FF5C
FF5B
FFE6
FFC8
00A9
FF83
FF83
FFF5
007F
001C
FEEB
FFA5
FF70
FE98
FEEA
FFB4
FFC2
FF85
FF7C
FF11
FEAD
FF24
FF2E
000C
0003
FFD1
000A
FF43
FFF1
FFA5
0018
FFE5
003A
FFB4
004C
FFAB
FEF6
FF7F
FF0A
FEC3
FDF2
FEC3
FDD6
FD22
FC84
FC20
FBDF
FCCA
FCFB
FE61
FDF4
FE62
FF8A
0050
FF68
FF32
006D
002A
FF0B
003E
FEBC
FFDA
001C
FFEF
000F
FFF3
FFB9
FF93
002D
00FC
FF66
FDD6
FB60
F8A0
F665
F675
F6E5
F71A
FA56
FCC2
FE81
FF3E
FF52
009E
FFF9
FFD8
FF90
FF99
FF63
FFAA
FF55
FF1A
FFBB
006B
01A6
01C5
0404
057C
06D2
0572
037D
FF9A
FB2F
F983
F8B1
F89F
FB11
FBC6
FDA6
FE9B
0042
00C4
FFDF
FF4B
FF52
0047
FFF4
0058
FFEE
005C
FF4A
FFB7
0069
0380
0537
0702
07C9
08FC
05C5
0341
FFFB
FBEC
FB92
FC0B
FD28
FCFC
FC2C
FDA1
FF5C
FFFD
FF36
FF33
FFC0
0037
FF5B
FFCE
FF11
FFB1
FF24
FF47
0018
0159
04A9
08B2
0B68
0DCB
0A34
0923
06B7
04BB
02D7
006B
FF9D
FE1B
FD71
FED9
FFC5
FF64
FFE1
FF56
FFAF
FF96
FF3B
FFEC
FFD8
0078
002B
0222
019D
03AC
0801
0AE7
0F09
1157
1081
0F90
0F76
0BF7
0708
05B4
043C
0220
011E
007D
0067
FFC5
0017
FFE6
FEE2
FFAE
006D
002E
0196
0196
0145
0096
03B4
0643
09BE
0CDA
0DFA
0F0E
1292
1113
11CF
0D3D
0CE1
08B5
07BE
0582
02B8
0187
00C0
FFE7
FF55
FF60
005B
0035
0074
0106
02C6
022C
00EC
0220
0281
04C5
0735
05B6
05EC
0A38
0D25
1038
0CC2
0E5E
0A79
0A44
081F
0630
0370
0364
00ED
FFAA
00B1
FFBF
FF5F
002D
0160
0131
028F
00FC
0034
004A
0133
01C2
FF5B
FEC5
00CE
069D
0B68
086D
09FD
0913
0B17
0A34
075E
0462
03BC
013D
00FC
FFEF
FFCF
005C
FF4C
00DD
0128
0164
0141
FFE8
FDCF
FCD0
FCC8
F8A2
F83B
F6A9
FB76
023A
06A3
051B
04A3
0621
082E
0772
04E8
021C
FFB5
FF55
FF7E
0057
FF35
001B
FFF1
007B
0042
0165
00AD
FD38
FC32
F8BF
F660
F436
F3A0
F64E
FC6E
0122
0398
FF63
FD47
00D6
0439
03C0
0241
FE7B
FCAD
FD9B
FF6B
FFE8
FFE1
002D
006E
FF88
0089
004C
FDDC
F95B
F998
F4BC
F34F
F287
F115
F711
FC45
00A1
FC9C
FA62
F709
FB03
FF44
FF2A
FD6A
FA7D
FA02
FB2C
FF8F
0088
FFFC
0014
FEF3
003B
FF0B
FFF2
FD22
F95D
F631
F433
F35A
F0D1
F1EE
F89B
FD91
FC3E
F995
F808
F7D0
FB7B
FBC2
FBCC
FA4C
F892
F9A2
FBD3
FF55
FF98
FFDF
FF93
FFFD
FF9F
FFE4
00E7
FDE9
F93A
F789
F757
F54C
F1ED
F44A
F901
FBEA
F7C4
F767
F6A8
F7CF
FC20
F97F
F8AF
F8FB
F990
FA1A
FE1B
0011
FFC6
FFE7
FF79
FF2F
FF34
004E
017E
FF5F
FC6D
F9D6
F9A4
F54D
F52C
F7AC
F91E
FB6F
F96A
FA81
FABC
FB9E
FADD
FA0E
FAE1
FAAC
FA51
FE20
FE9F
00A0
0081
FF6A
FFB6
008A
FF90
00F0
0371
038C
0119
FEB0
FAE4
F85C
F8AE
F74E
FA3D
FB8F
FC23
FC5A
0027
FD54
FBCB
FBF5
FCB8
FC69
FDBD
FF76
00D6
0128
00C2
FFC3
FFB0
FECE
FFBF
012C
046D
055C
05C3
0256
000F
FA3B
F8CA
FB03
FCD3
FDC1
FDDD
0095
FF4E
FE69
FD03
FE62
FD8C
00FB
01CE
0264
02B1
01E4
0025
FFBC
FFFA
FF83
FF82
011A
0466
08E8
0945
0781
0413
FEDB
FB2A
F9F1
F9F7
FE66
FE7E
FA78
F9AE
FA12
FBB2
FDF1
FF88
0236
0390
046F
0369
0151
0071
FFBD
FF1C
FF5C
FF46
0051
04AE
06AA
09F8
0A56
0A0A
0537
FF93
FA35
F80C
F987
F6DD
F571
F751
F8DD
FC8B
011B
033D
04A4
0469
04A8
03B6
012B
FFF3
FF67
FF70
FFD7
FED9
00C6
0299
05CE
09C9
0B19
0BAE
0901
02DE
FE6F
F87D
F630
F79C
F79F
F9CA
FCBF
FEA6
02E4
0448
04EA
0489
037B
022E
0009
FF70
FEB9
FFF2
FF6A
003F
FFAF
0091
03FC
0779
0A30
0B4A
0B14
09E1
06CD
0253
0210
0175
0192
0214
0319
0433
02B3
035D
02FA
0279
0146
0120
006A
FFE8
0093
FFCA
FFFC
FF59
FFB5
FF44
FF98
0201
0378
0610
07A5
0A4D
0A97
0C62
0B06
0B56
091E
07A0
0583
0255
0215
00D4
00C4
0063
00D4
0028
FFFD
FFC7
FFF9
FFAB
FFA4
FF5F
FF4A
0069
FF88
0029
0108
019C
0356
02C0
04D7
05A1
0647
0550
0530
0423
02BC
0142
0009
0041
009D
FEDB
FF5E
0012
FF8D
FEAC
FFBE
FF9E
FFE9
FECF
FF21
FFE0
0060
FF33
FFB5
00CB
0204
03DB
04A1
0572
066F
0696
067A
05FC
0607
0405
0279
0177
00C2
004B
FF65
FFAF
FF88
FFC7
FFD8
FF09
FFED
FFDD
FFEF
FFA8
0004
0012
FF68
00EC
00BB
0123
0184
020E
03B4
0390
048F
03CD
025E
022E
0211
0085
FFE7
004A
FF56
FFA6
FF80
00BD
FF66
00AE
FFBC
FFA9
FFE4
005E
FFA4
FFDA
FFF3
FEFF
FFCC
FF97
0081
0001
FF80
FF9C
0078
FFE9
FFE4
FF64
FF5F
000F
FFB9
0077
0021
FF1C
FFDE
FFD3
0008
017D
0288
01FA
022C
02EA
016D
0212
021E
0169
02DA
0127
0241
0298
02C5
023D
0237
018A
025E
0192
02A7
0236
01F5
0200
0280
0191
0185
02CE
01F9
0210
0264
020B
01C0
025D
0293
0294
02B4
022C
0194
026E
0299
0156
022B
01E1
01DA
0151
0186
0324
029F
01E1
0166
0232
0266
01C0
017B
0100
01A0
0205
021C
01F1
01AF
0272
0219
01BE
01D1
0258
01CD
0203
0128
01B5
01D7
00EF
0121
0189
014C
00DA
00DB
005A
0147
00EB
015A
0204
0225
01F8
0236
0193
016B
0268
0249
0189
01F1
01BB
0103
0160
00EC
0022
FFAB
FF6E
FEA3
FFD7
FECD
FDDB
FE23
FFC9
FF74
0053
0051
017A
0229
01DA
0270
01C8
0297
0267
022E
0239
01C2
0291
0238
018D
0126
00ED
008E
FFB9
002B
FECD
FED0
0030
FF88
FF83
00A1
0188
0335
0309
03DB
045A
03B2
0283
0283
01A5
01C6
0249
01B8
014D
0269
02C4
027D
02D2
01CA
0147
0016
0132
FDCF
FD16
FBDD
F96F
F367
F2AF
F42C
FAFF
FE62
02F4
042D
0462
0557
0592
0304
0339
01D0
01BF
01BB
0136
01DE
028C
039E
02E2
0234
0171
0113
0087
FE36
FD35
FB0F
F5B8
F5E5
F42D
F588
FA11
FE0A
00A3
0289
02FF
046C
06FA
04C4
02E3
01AC
01DB
01DF
021F
0285
0406
047D
030F
01B0
01C0
020C
002B
FFEB
FFC1
FEC2
00A9
0060
FF6F
014E
001D
026B
02C4
02B2
01E9
0419
0799
0746
0319
00FA
0232
01F2
02D2
0384
0374
0423
032B
018C
014E
005C
FF7E
00EC
FED6
019A
0663
0A73
0A53
04AB
03AA
009B
FEC3
FF95
FED6
0279
06AB
0641
031F
028C
01A0
0175
02BF
02A5
043D
0415
0246
01B9
003A
FE3B
FDBC
FD30
FE79
03FF
09CC
0CC8
0C9E
05A1
0056
FDB4
FB1F
FA56
FC16
FD7C
039A
04AF
02CE
01C7
0182
02A9
0226
02FB
03C2
0331
0202
FFC3
FE7D
FD8B
FA6B
F7AE
FCC1
0568
0DF2
0EBC
0A04
0235
FAFA
F743
F76C
F559
F64E
F989
005F
02C9
0280
030F
0225
02CF
037F
02B8
037F
015E
FFF1
FFD4
FEF1
FC2A
FA4E
F7EC
FCE7
0827
1044
0F5B
0882
FF53
F8BA
F6A4
F594
F42C
F4CC
F808
FE3B
01A5
027B
0243
0219
0295
0270
0300
0306
017A
000D
FFC4
FF0C
FEA8
FE54
FA27
FF35
0B79
10F4
0C5B
0352
FE81
FCA6
FB2B
F8DC
F5A1
F489
F7E3
FCC6
01A1
027F
0224
01B0
02AD
02D8
02E6
02D2
011D
FD4E
FDBE
FF1A
01D9
002D
FDC7
013E
0BA6
0B93
078F
0289
0130
0284
0246
FDE5
F731
F65A
F81D
FDF7
01FF
0095
02C9
0187
01B9
01D2
022E
0165
FE41
FB4C
FAC2
FF38
0093
FF20
FB18
FF1A
00B7
02FE
0582
024A
02B4
0679
058D
002C
FBDD
F939
FACE
FDC5
00FF
01B7
0253
01B7
02CE
0299
02F8
00AC
FB3D
F8AA
F7CB
F8E3
F9C1
F8A1
F417
F653
F8B8
FB7D
000F
FFF5
03E6
0904
07AA
0259
FDC7
FBCE
FC81
FE81
0114
0122
0114
02B9
0286
024A
0258
FF7F
FA16
F660
F339
F1DF
F007
ECDA
EDB9
ED90
F376
FC07
FCF2
FAD1
0246
05E5
0523
017A
00F0
FDAF
FD15
FDD2
00E8
00B8
01E2
020C
01BF
01B7
0367
00B1
FB0E
F7F2
F3F3
EF5F
ED09
E7FC
E73A
EB60
F6E1
FC02
FA97
FAD3
FE55
00C8
0184
00AB
FF6C
FE03
FD0B
FD98
FFBF
01BD
01B5
0324
01EB
02DE
03D5
0147
FE24
FB6A
F6D4
F028
EC72
E587
E6A6
EEE5
F88A
FCDD
F903
FA20
FB38
FCC7
00BC
0000
FDFD
FE51
FC19
FD8A
014C
0195
02BE
0131
027C
02BC
04CB
0280
005D
FF0F
FB5B
F5BE
F143
EB62
EDEB
F6D2
FD92
FC74
FA6D
F7C3
F9A2
FB5B
FE9A
FD92
FDFB
FC05
FC81
FD9B
FF99
024F
02F7
0219
0238
021A
03DD
03F9
02AE
019E
FF0C
FBD0
F94D
F62E
F792
FBCD
FF4A
FF83
FB9C
FA07
F8A8
FCDB
FCA7
FD32
FCD2
FBCC
FC9A
FEDC
01E7
0234
01F3
01EA
0266
0250
040A
03E6
039F
0370
02A6
0424
0089
FE5E
0030
FF14
0007
FE43
FC65
FD02
FE9B
FE8D
FCB0
FC86
FC67
FBF9
FE79
FF2D
0143
01FC
02C1
0294
0204
01AF
02CC
03FE
037D
0298
04E0
0871
09BD
0577
0178
FFDD
000B
00B3
00D0
006C
0091
FEA9
FCA2
FC3F
FC78
FD4D
FF3C
0097
014F
01EB
02CA
0244
0260
02EC
02E8
0512
0458
03FD
06CA
08C8
0AB9
08C2
057C
02CB
01C7
0455
047A
03A7
0108
FE19
FDBD
FD72
FF3F
FF90
007A
0157
01E8
0188
0195
016C
02BC
01A6
02BB
031C
043C
05A1
0564
062B
0745
0620
03E1
0108
0082
0004
FF1F
FF4F
FFAC
0062
FF9D
00DC
00B9
0206
015A
01C5
00BE
01EE
027D
021A
01F9
01A5
0302
0341
02BA
046B
0761
0837
0990
0A20
0A79
08AC
0821
0747
0526
03BC
034E
02F7
01A4
02A7
0152
029E
0245
02D4
028B
02C0
01C8
01E7
0249
01F5
0202
01F8
02C5
02ED
03A3
0529
05D1
0533
05EE
0636
0619
0662
04DC
04C7
043B
0360
021A
01A0
0268
0215
019D
0202
0273
028A
025A
01EE
01D2
0178
018B
022D
0208
022B
028D
02D1
0212
020D
0279
0259
02F1
01C2
02DC
0208
02F8
02BC
0304
021E
0304
0277
0251
01A9
0228
0244
0218
FFDB
FEA6
002A
001F
0010
FE18
FFC3
0007
0020
FE4A
FF5C
FE6B
FF9D
FFA5
FF51
FF36
00BC
006C
FFA1
FE6D
00FF
0007
006E
FE72
FFB2
FF4F
FE92
00BE
FF92
FFC2
FF28
FE0E
FFB5
FF34
FE92
00A3
FEDB
002F
FFFB
007A
000C
FEF0
FE5D
FFE2
FE71
FF01
FED7
00B2
FFCD
000F
FECE
FED3
FF19
FF8B
FE2F
FEA4
FE41
FEC4
FE56
FEEF
FF3F
FFE6
FE7A
FEAB
FFE3
FF1B
001C
0122
0273
FF53
0117
0215
FF8E
017B
0104
00E9
00A9
010D
FF8C
FFE3
00F3
FF8F
FE39
FF8A
FFDF
FF77
FFB2
FFCF
0013
0024
FF86
FEDE
0023
020F
01E5
02FD
03DF
049F
04DB
04A6
0433
05C6
0332
00AA
0097
004F
00BD
FEB9
0092
FF7C
FFE1
FE58
003C
FEAB
FFF7
FE75
0030
FDC8
FFFB
0018
00EC
010F
01C1
02C3
05E2
03AD
06F9
051D
044C
05CC
0384
02ED
00AB
FE84
FEAD
FE57
FE2F
FF53
FE21
FEF6
0029
FF6D
00D2
FE1B
FFAF
FFBC
FF9B
007B
FF16
FEF0
0014
002E
01F3
0305
0410
070B
0407
0576
0372
FED4
FD11
FC32
FC51
FB49
FBE9
FE1F
FE91
FF7E
FF89
FF84
006E
FFC6
FE26
FFC8
00A9
FED1
FE3B
FC66
FDA7
FEFF
012A
03B8
0604
075B
0819
067F
02FD
0129
FBAA
FBC5
FBA8
FA9F
FBE6
FC39
FED5
FF3E
004F
FDF7
FF27
FFA1
FEFF
FF7A
FE8A
FC9A
FBE2
FD44
FB1F
FE97
FF4D
02A0
0401
0514
056F
0428
FF53
0098
FCC9
FA12
F97C
F93D
FAB2
FC68
FD1E
0063
FED4
0046
002C
FF29
FE62
FD34
FD8D
FD17
FA4E
FBFC
FD8F
FDC8
00F9
00C7
0175
03E8
039B
0341
024B
0039
FD5C
FBF2
FCAC
FA48
FB3B
FB88
FFB6
FFFC
0061
FF05
FEBB
FF16
FDBA
FDAF
FB9E
FDE2
FD07
FD47
FE84
FE8A
FE91
00C2
0059
FF4B
0064
0187
FF96
FF49
FEA5
FF91
FD6E
FDF9
FB3C
FCD6
FEB0
0022
FF7D
FFB1
FE54
0008
FDEC
FEFE
FC96
FB1A
FBE0
FB2C
FDEB
FDA5
FF7C
FB9A
FDC4
FCEC
FB24
FEB3
00FB
014C
0540
03E4
0250
0022
FDF1
FEF7
FE0E
FFB6
FF19
FDEF
FFC4
FF7C
FF9F
FC77
FD93
FBDF
FB7B
FCF3
FCD7
FBCF
FA31
F78E
F8D9
F6D6
F6BF
FA69
FB52
038E
074D
07B8
0622
0499
00D3
FDD1
FF7B
007C
FE3E
FF3C
FE8B
FE6B
FE64
FE1E
FF83
FD62
0159
FFA4
FCC9
F984
F851
F401
F414
F2FC
F612
F761
FA05
FFF9
05AF
071C
084C
0826
0149
008D
FE4E
FF60
FE74
FE3E
FF9D
FFFB
FE81
00B0
0250
0400
0364
011D
FC2F
F8AC
F6D3
F5A8
F114
F506
F3A7
F54A
FB7D
FD22
0566
0967
074C
0797
0201
FF7B
FEEF
00D2
FFE0
FF9B
FE90
FF00
FE5C
01D5
03CF
044D
0430
0772
03B3
FB89
F643
F40B
F3EF
F487
F6B1
F9ED
FB7C
FFFA
057A
0709
05C4
074A
0243
008E
FE8C
FFDD
FF9B
0094
FFAE
FF25
FFA6
054F
085F
090D
0861
0B31
0712
FF33
F946
F9EF
F91B
F78F
F9E4
FA20
FD7F
01A8
0370
039A
0563
0562
03B6
014C
0001
00FA
0021
0024
003A
FE01
FF27
04A9
0866
08AC
0CDF
0C30
08C9
03E7
FFE6
FC7D
FBEC
FB20
FB64
FECA
00F7
020F
030A
043A
04FD
0353
026F
006E
FFC8
FF6F
FFA3
FDD9
FE03
FF2D
012D
0581
072A
0903
0B5F
0D98
0C89
07C3
020D
FE52
0064
FE7E
FDC2
00B5
02F6
0435
053F
068A
056C
02B2
021F
01B6
00DC
0016
00EE
003F
0051
FEC2
002B
061B
048A
074D
08E7
0C25
0A9D
08D0
047E
0240
FFCC
FFB3
0263
0748
09B9
09A6
0403
0466
0474
04BC
040B
01D2
FF82
FF07
FE9B
FF79
0099
FDC0
01AB
03FA
044C
0377
0955
0B1C
09B8
0721
05BD
0378
039F
03F1
05AC
076D
0957
084B
0454
0731
0646
0686
03A9
01CC
FFE7
FFDC
000C
FE79
FF32
FEC9
00D4
017F
0388
056F
043F
0641
0800
0748
04C2
0465
014F
04D2
0520
070E
04E5
0251
0236
05E0
06A8
027E
015D
00B0
FFE8
FFF5
FF1C
FF5B
FEE5
FFAE
FFD3
004E
03AE
0469
03FF
03E1
0360
0204
0132
016C
FEB8
01E2
0185
FFCE
02E3
0304
00B8
0310
03AE
042B
02D8
01AF
00E6
00AF
0071
FFEE
003B
FF29
0040
FEFC
00D3
0232
0016
FF87
FCE3
FC7A
FC7D
FD6B
FCB2
FBEC
F96A
FB28
FD3A
FE5F
014D
01F0
008D
01BE
FF4F
FEB3
FFC2
0046
FF83
FE34
FF1B
00DC
001F
FF14
FE2B
FFDC
FEC3
FE42
FA3D
F91A
F956
F97C
F803
F7E3
F770
F942
F9DE
FD5D
FDA7
FF45
FFB6
0153
FF09
FEAB
0046
FE8D
FF9A
FE5A
008E
00A7
FF0C
FE72
FD65
FE7B
FECE
FCD9
FB73
FCA3
FDE8
FBE0
FA47
FD1C
FCB0
FD82
FD16
FF51
FE2D
FEC2
FF72
0142
0085
FF36
FFAF
001E
0058
006E
0080
FF4D
0085
FEC4
FDC0
FE0D
FE3E
FD51
FDE6
FDC2
FE2C
FCD4
FD14
FDFB
FE89
FEDE
FF8E
0059
FFC6
FE5A
FED9
FFB9
FEBA
0085
FE90
FE76
0024
FFF5
FFEE
0008
FF2D
FF55
FEAE
FD27
FE28
FF17
FF80
FF33
FF5C
FDC6
FE9B
FE14
FE56
FD64
002D
FF5A
FFF9
FE7B
FEFA
00CF
FE85
0093
FFC0
00FD
0096
0014
FF98
FEF5
FF39
0031
FEA9
FFF9
FFBB
FEA9
FF9D
FF12
FF77
FF6B
FE9E
FF36
0023
FEEB
0097
003B
FF01
0005
FE68
FF3B
FE64
FF46
0059
FEFD
FF30
FF6B
FEF5
FF06
FF03
FE89
FED7
FF2D
FEF4
FEE8
FFC4
FFAD
FF63
FF04
FF20
FF92
FEFB
FF37
FF59
FF7E
FF90
FED9
FF0C
FF72
FF64
FF38
FFD6
FF75
FE54
FF1B
FEF9
FE99
002B
FEA4
FEE1
FF2C
FF3D
FEDE
FFD3
FFE2
0057
FFAD
FEF5
FF4B
0025
FF44
FF3F
FF8D
FFC2
FFD0
FF73
FEDA
FE74
FF51
FFB0
FFF2
FFE4
FEB1
FF33
FDD0
FF1E
FEEB
FF91
007C
FEFD
FFE1
0078
002A
00AC
022B
0123
0194
034E
0235
037E
02C1
01F8
00C7
FFFB
FFC1
FF61
FF1E
FEA7
FF45
FEBF
FF0D
FF38
0017
FFE1
FF6F
FF5A
FE74
FE84
FF6D
FF01
FE0A
FEB7
FE91
FEFF
0207
033E
04B2
061C
0545
0546
0261
015B
003E
FEE9
FF90
FE9A
FF3B
0080
FFB4
FFEB
FE50
FF58
FF19
FFB9
FF17
FF2D
FDB4
FCEB
FB8F
F737
F684
F7B0
F935
FB01
FD69
0009
009C
018A
0093
FFEF
0027
FF48
FF6A
000E
FF2A
0033
FFBD
FF27
FF35
FF25
FF7D
FF4E
FEE2
FFB4
FDA5
FD54
FAC3
F7EF
F392
F526
F60B
FB6E
FDF2
FF04
FD2A
FE26
FF4B
FF60
0033
00B2
0031
FF6A
0032
FFE5
FEE6
FF1F
FF11
FF84
FF99
0021
FFB9
FF97
FF31
FFA6
FF3E
FC7B
F8F5
FC1E
FD5B
FDF4
FF13
FED3
FD9A
FEE6
FEB4
0027
0003
0059
FF42
FEAA
FF03
FEF2
FF41
FFB2
FF9C
0020
FFF1
FEB3
FEFF
011F
00F9
01FD
022B
FEE7
FF20
004E
0090
FEFF
FDBB
FD6A
FEA7
FF97
0007
006E
013B
00ED
FE46
FFFE
FE34
FF5E
FF92
FFB7
001E
FF45
FF6E
FF22
FF5C
01FF
0158
048C
0345
039F
00CF
FBD4
FAF2
FB10
FD11
FB36
FE11
FFDF
00C7
01AE
013C
0108
0047
FF38
FF62
FF24
FFE0
FF05
FF22
FF10
FEB8
FF44
020C
037C
05DC
065E
0763
0697
014F
FA88
F67E
F8E8
FCC9
FDA4
FFF9
0138
00B7
013C
0211
0036
005F
FF7E
FE6F
FE92
FEAF
FE87
FF6F
FF44
00B6
028A
031A
059F
06A3
0948
0D11
0A6D
0419
FB66
F99A
FE32
029C
01CE
00E4
00DC
00DC
0209
0007
0150
FFD3
FF9C
FFBA
FF74
FF98
FFB8
0042
00BA
01FA
03BF
0763
088C
09C9
0E81
1373
11EA
0834
FDB4
FD2C
03AD
09E0
072B
043B
02E4
023E
FFAA
FF3B
00D7
FF55
0014
004A
FE76
FFD8
FE7F
FF75
016D
01F9
0559
084F
09BE
0B4D
11B7
17C1
1427
0963
0048
023B
0AB8
0CA3
0AD7
0715
0235
0132
00A3
0110
FF84
FFAD
FFD9
FEC6
FEB3
FF1D
FF59
FFAC
0105
01F3
0521
0675
08D3
0AA3
0F1E
1525
0E99
044B
017D
076D
0DB6
10A1
0CC1
07FA
044D
01A3
0148
00A1
0054
FF52
FF7C
FEE1
FFA8
FFEE
FEC9
0017
FFF0
0065
024E
0503
03B9
07C5
0AA9
0D2E
0836
FD17
FF02
040B
0C96
0EC0
0D62
07B5
04E9
0316
0262
00F7
FFF3
FF3A
FF1D
FF34
FFEC
FEBE
0027
FF6D
FFA8
FDF0
FF0D
FF4A
00D2
0408
080A
094A
01A2
F70E
FC1B
01BB
09F9
0C1B
0A6D
0758
0438
01D1
0204
FFEF
FEDB
FE5B
FDBD
FEF9
FF91
FFAA
FEA0
FF50
FD03
FAEC
FAA5
FBA7
FED6
0171
06C6
06B1
FD1E
F580
F7C9
FE08
0547
0946
080A
0553
0389
0072
FF2E
FEF2
FC90
FD31
FFA3
FFF6
FED7
FEFB
FF8D
FF8E
FBC0
F89A
F7B3
F866
FBF8
01F5
05CB
029D
F9F1
F26F
F242
FB16
FFE7
04DD
0530
02AA
0137
FF2B
FC0E
FB4F
FAEC
FC01
FEAA
FF8F
FFC0
FEF8
FF53
FE9B
FBA1
F827
F63F
F60C
FB2D
FF41
01D5
0127
F85E
F2CD
F13D
FACA
FE05
04FF
04D4
017E
FE20
FA9A
F93C
F90E
F8B3
FB58
FF9F
FFD8
FED6
FF66
FFF1
001B
FC4C
F8B8
F4F8
F69C
F69D
F98F
FCA0
FB3C
F358
F1CE
F651
FD82
01E6
036A
0452
FF9C
FD5A
F904
F7A3
F7FF
F99A
FD86
FE27
FE67
FFB5
FF1E
0061
0015
FDC8
F992
F709
F736
F5F5
F79C
F87C
FA62
F84B
F7E5
FD9A
00BB
052C
05D2
0315
FE9F
FB2C
F7E9
F7DE
F6FC
F9BE
FDA8
FF01
FEED
FEFD
FF23
FF8D
FFF2
FE6B
FB36
F8E0
F7F9
F6E1
F954
FACA
FF75
00CB
0324
046F
04B6
0554
03CE
0162
FC6B
FA8E
F93A
F8BB
FA51
FC17
FE77
FF5A
FF7D
FFB9
FFA3
FF52
FFB2
FE38
FEB7
FC96
FBEA
FA44
FAC2
FAE7
0237
03A4
03B6
0610
0211
01AD
0054
FE06
FCE5
FB66
FB5A
FBD8
FCD3
FE9F
FEAD
FE6E
FFCB
FF88
FEE8
FE96
0054
0040
FF86
FFBB
0094
00F3
00DB
0518
078D
0791
0729
04EA
01AD
00A9
001B
003D
FF04
FE93
FEC8
FDFF
FDE5
FF4C
FEC4
FE94
FFCF
001C
FF7F
FF5F
FFC0
0064
010F
00B3
03CC
06F4
08D9
09C2
0B35
09B0
0850
0633
0465
034B
0365
01F5
0272
0124
0044
FFF7
FF91
FF2C
FF43
FF5B
FF49
FEB7
FF3D
FF62
FFD4
FEC9
FF99
021D
026C
04A0
04A0
0583
0555
0534
042F
041E
0366
02EC
025C
01A7
01B5
0124
006A
0018
FFC9
FF17
FE52
FF67
FF48
FFAF
FF42
FFD9
FF54
FFFF
FFC0
FF25
0017
005A
0118
0123
00B0
00B2
00FD
0094
0113
00EF
FFE3
FF82
FF55
FF54
FF9A
FF0F
FEBF
FFE0
FF26
FED6
FFDB
FE5F
FF38
FFFB
FFA1
FF55
FFAB
FF2E
FFBF
FF36
FF96
FF74
FF11
0024
0003
000F
FFA0
FF48
FECE
000B
FF6B
FF95
FFAB
FED6
FF54
FF61
FDE1
FEE2
FFAA
