0051
FFDE
FFFF
FFBC
FF17
003B
FFAD
FFF0
0008
FF93
FF5F
FF28
0016
FF8D
FFBC
FFFE
0049
009E
FF0A
FFAA
FFBE
006C
0031
0001
FF7A
007C
FEF2
FF86
FFA1
FF9D
0026
004D
FFE1
008C
FFD4
0007
FFE4
FFCC
0037
FEE3
FFCE
FF88
003E
0039
00A5
0025
0015
002C
0069
FF63
FFB0
003B
FF04
000D
FF5C
FF2B
FF30
0083
FFDF
FF1E
FFD4
FFC3
0002
FF8C
FF7F
FE67
FEF7
FDFE
FE06
FDBF
FCA4
FDB4
FC99
FC69
FD45
FC9E
FE3F
FED3
FF27
FF66
0054
0079
FF9F
FFFC
00A2
FFC0
0018
FF38
0092
FFC3
FFCF
FFC5
000E
000F
008F
00AB
0057
FFBC
FF64
FF0A
FF17
FCF1
FC63
FB34
FBE3
FD40
FF36
FF3C
002A
0066
000A
00C6
00B7
FFBB
0071
FF8F
FFAC
FFF4
00FE
018A
038D
0430
0531
0639
06B1
0833
0713
0762
05EF
033B
00F2
FEE4
FC65
FD6B
FBE3
FCB5
FEC9
FF8C
000D
FEDE
FF8E
007E
FF69
FF7D
00E6
008E
019B
0375
0580
04B8
04FF
0773
07E5
0998
06D3
071E
048F
005D
FE19
FD47
FB33
FB64
F987
F93B
FB29
FE51
FEFF
0017
FFC2
FFDA
001A
FFD1
00D4
01B3
03C1
050E
05D5
05A2
0649
0579
06A8
0655
05FB
054F
074D
0457
FFA4
FED7
FD38
FB0E
F8C9
F7A6
F8E2
FC90
FF01
FFE4
0085
FF7B
FF75
0066
018E
032D
041B
054D
0423
040A
03B6
04D4
0649
083A
08B1
085F
0A14
0975
0803
04C4
0190
FEB2
F95C
F616
F71C
FABF
FF55
FFE8
0095
FFD3
0088
0146
02F5
0431
0546
02D9
014B
FF56
001B
00B3
038D
0528
0816
0BE7
0E2B
0E77
0BE0
0A31
05C5
0185
FD15
F961
F733
FB33
FEAC
0008
FFE4
00C0
00A7
019D
0292
034C
0364
FFFA
FC08
FA66
FB45
FD80
FE8C
0185
0927
1038
125B
0FEF
0DDB
0A6A
07EC
069A
016C
FCCD
FA23
FBD0
FEFC
FFC1
FEC3
0060
FFE9
0187
01F0
0257
FF3B
FABB
F809
F53A
F44E
F4F5
F74D
FD79
0393
0CF4
0FE4
0FB2
0BF4
0B97
0A03
066E
049E
0140
FD8F
FD91
FF2D
FF8F
00E7
0039
002F
0194
005F
0016
FCB0
F707
F44E
F243
F023
EFF0
F2C4
F70D
FD9D
04D2
095E
0A2F
07B4
087C
08E7
0849
0509
0307
FFCB
FE03
005A
00D3
FF04
0023
008D
001B
005A
00A3
FAA3
F791
F3CD
F233
EEDD
EE9D
F122
F26D
F495
FB31
0067
013F
0303
0333
0472
04C1
02E4
01CA
0069
FFA7
FF09
FF92
FFE8
FF5C
FF55
002E
0124
FE90
FC86
F8F6
F517
F338
F371
F0B2
EFA3
EF8C
F1D4
F39D
F85A
FE72
FE6E
FFA7
0180
0219
0083
00CE
FFD6
FF47
FF77
0008
FF51
FF12
000D
0078
0120
0043
FF7E
FB74
FAB6
F925
F7D7
F562
F2B6
F1A6
F24A
F434
F843
FE46
FE7B
0259
01FC
FEFC
FEED
FEE2
FED9
FF4D
FFD4
000C
0027
FEE6
FF82
00B8
01A3
0340
02B4
002E
0079
FCD8
FAD4
F9B5
F492
F21A
F3FC
F3EE
FBF3
0132
0287
0246
026C
004C
FE6B
FE74
002F
0119
002D
FF1F
FF7D
FF57
FF47
002C
0245
05CA
04AF
03A1
02E6
FF5C
FE03
FA4F
F7A9
F3AC
F5C5
F81E
00DD
028A
04D3
0503
00E0
FF64
FE81
0050
008D
0246
00E5
0125
0034
FFAE
FEE2
01A5
034D
06E3
0588
0441
039D
FE30
FB13
F889
F904
F880
FA77
FDB8
033B
04F5
04F3
033A
00D8
FFCB
006D
024C
02D6
031A
0097
FFF1
0016
007F
006A
01B1
0442
0552
0564
0354
0148
FE09
FB77
F965
FB4C
FB9F
FFF2
03DB
02B2
0230
0311
03BE
0325
0250
02B1
0383
0414
022F
FF6C
FFEB
0029
FFD1
0018
0303
047C
053F
055D
02FC
01BE
FF21
FBCD
FC03
FD93
FF40
00C9
01B7
0165
01B1
02E8
044F
025D
048F
0570
03FB
0379
02AE
0026
FEF9
FFC7
00A8
FFB0
0123
0589
05CF
04E3
02BB
02DA
016A
FD0F
FD8F
FCC8
0061
FF40
00BC
FF0D
FFCB
0302
02B0
0388
04C7
04DC
03B6
03BE
0162
0036
FFB9
FF9D
FFAC
FFCB
0173
0438
0594
0485
034B
0372
02A4
00E3
FD39
FB52
FB9E
FD69
FD28
FE0F
FF9F
012E
02E2
0464
041C
0405
0313
0293
0059
0088
0059
0057
FFED
FFD6
008A
0369
04D3
047D
051B
03EA
0546
02D8
0240
0041
00E8
FEC6
001B
FED8
FF25
004B
00C7
0152
0320
01C9
021F
0096
FFD9
FF8B
FF83
FFC9
FF2E
FFBA
0076
018B
0371
02B3
023A
029A
0373
02D5
022A
0282
FFC0
FCF9
FDCD
FC47
FA32
FBA4
FE19
FE54
0076
00E6
0123
003E
0100
006B
FFE8
FFF9
FFD3
FFC6
FFCF
010D
0164
01AA
01CB
0053
002D
00C4
006B
FFCA
FF40
FDB2
FE97
FCD7
FC49
FCCD
FCF3
FE53
0015
0037
FF61
0060
FF0D
FFD7
001B
0011
FF94
FFE8
FFBF
004F
0091
007A
02AD
0226
03EC
0515
04FE
061A
049B
048B
028F
023F
00D1
FFBF
FF43
0027
FF82
FF7E
FF66
0046
0016
FFA4
00D9
FFBD
FF2D
FFE6
0021
FFE1
0045
003A
0158
0241
01A3
027E
0328
01F1
02E3
035F
0285
028F
00D0
0074
FFE8
FFC5
FF8A
FFAF
00BD
001C
FF8F
FFCD
0023
FFF2
FFBB
FECD
FF8B
0022
FF45
FFF4
001F
0097
FFB9
FFFF
FFE9
0043
FF8D
009A
009D
001B
FFA7
0100
0026
002F
FECC
008A
0037
005E
FF69
FFCE
0066
02A2
013D
025E
01B3
0265
0183
0286
0208
0140
02C4
02F8
0158
023D
0287
0195
0284
02B5
0165
022C
0248
00FC
01EA
0211
0234
01B7
00D1
022A
025B
0255
027A
020F
0202
01C3
01CA
016D
022C
0279
012E
023C
0206
01AE
0206
01A0
017D
016B
0245
02B4
0215
0158
0118
01DE
01F9
017C
01B5
0255
023B
01AE
01D5
0307
01AD
020E
027A
0206
01F0
019B
006D
FEC3
FF07
FED4
FE15
FDEE
FDC9
FD36
FE87
FF30
FFAE
0040
00B3
012B
0176
0157
011B
0206
0186
0190
02BE
02E5
0140
024A
029B
0161
00AC
FFFE
FE8E
FDFC
FC0F
FB66
FB4B
F961
F972
F86E
F928
F9CD
FC44
FD0D
FF52
FFD2
0159
0196
01A2
01FC
01CE
02C0
012E
022E
02BD
01C4
01EC
00CF
FFA2
FE5C
FBBC
FA6B
F95F
F94A
FA5C
F9E3
F969
F9F9
FABA
FC08
FD64
0068
016D
0281
036A
02B3
01F6
0191
0195
023C
0137
01B9
008C
01D4
0118
0048
FD97
FB94
F9D4
F70A
F609
F504
F407
F5AC
F4A2
F55A
F686
FBA9
FF49
010E
0454
0463
0637
042E
02E6
02C7
0109
0284
01DA
0209
027A
022F
00B8
FE83
FD52
FAC7
F96B
F91A
F7F3
F9D5
F751
F6D1
F865
F7D4
FBB9
FCBD
0124
030C
048C
054F
05DA
04F4
03CB
0278
010C
025E
01E7
02B8
0168
0164
FFE7
FDDE
FCDE
FD54
FB1A
FBCF
FB82
FDE1
FF84
FC02
FE7A
FE31
006D
0442
037D
043D
0572
057E
062F
0508
03A2
0210
0232
01D2
01F9
01C2
02D2
019E
007D
FEDA
FFC5
FE34
FF0F
FED4
FFB7
0189
00CC
00CA
029C
032E
05D7
05DB
05DE
0304
03CF
0256
0454
0491
02A1
021D
02B4
01B7
0143
0308
029C
01BF
00F6
00A0
0133
010B
0262
049A
0287
043B
00EE
02F4
042A
05C7
04F1
0474
04ED
01E1
0213
FF82
0231
01EE
01DC
0264
01E9
01F7
0233
0251
0226
035D
020B
032F
02ED
05EC
0693
0757
04F9
01BE
0225
0208
05E1
05D1
05F9
0352
03E8
0027
FE0E
FEA0
FEA6
0037
0243
01AD
02BC
0187
0166
01CA
028F
03AD
048E
04D6
0698
09D5
0849
0623
02E3
FF41
FF8F
0450
05C9
06F0
055E
03FA
0191
FE95
FCE7
FBAD
FBCD
FF3F
00EF
021E
012C
0286
01A9
0273
01FF
0452
0598
083C
097F
0AF9
0966
062F
FC46
FC61
0366
056A
05FC
071B
0267
01D3
00F9
FD5C
FB60
FBA9
FAF5
FE52
011C
02BE
025F
02A1
028A
021C
0354
0402
066D
071E
0910
0B01
084F
01A5
FAC3
FBB0
03FA
05F2
0720
05F1
0147
0305
02E0
FE92
FB6A
F97C
FB57
FCEE
0111
018A
021C
028B
01CB
017E
0326
034F
046A
069F
092E
0887
038A
FC62
FA80
FF9D
0581
04DF
096D
0607
03A9
05D7
0283
FE24
FCA6
FB91
FBCD
FCD7
014F
02B8
01B6
0250
01AA
024A
0239
03AC
03A6
044F
0598
043D
0091
FD06
FD4B
051F
06BB
06E7
0935
06B9
04EB
057C
01D7
FC77
FBDD
FA82
FC1B
FD0E
00B0
0123
01C3
01B2
01D1
0308
01F2
0117
FFF9
00F3
0001
0048
FC9C
FCD5
FEA6
0335
0949
099F
0B75
05A7
0649
0151
FB47
FB35
F82F
F8B3
FAC2
FD15
FF64
00C5
0266
0286
00CF
01AF
00EC
FFD8
FD92
FD11
FC9A
FAAE
F887
F8C3
FC1B
034C
0930
09EA
0909
0408
FDC7
F9CE
F64E
F7D5
F844
F807
F8C1
FB93
FF72
0147
01D5
02BF
0171
01A8
0192
FCBF
FA2F
F9D3
F703
F83E
F4A8
F1B5
F38C
FC1B
03A3
0601
0477
FC04
F67B
F3E4
F53A
F590
F5C1
F645
F988
FBDE
0003
01B7
01AD
0215
02EB
01AA
0035
FC30
F90C
F7D3
F6C3
F326
EE85
ED0C
EE0E
F481
FDFB
FC5A
FA42
F7B9
F328
F54B
F6A8
F671
F6C7
F954
F98E
FDDE
00D5
021C
01C2
016A
00EB
018F
0094
FD12
FA1B
F7A1
F481
F3AF
F188
EEB5
EFDF
F2ED
F621
F8D5
F786
F51B
F3B5
F616
F7AC
F92D
F943
FBA3
FC43
FFA8
014E
015B
0270
0243
0247
01BF
FFC4
FD77
FAAB
F915
F7F9
F688
F54D
F3B2
F383
F7D2
F6FC
F903
F80C
F94C
FA65
FA7E
FAD1
FAA6
FBCD
FCD5
FDC0
007D
01A0
0252
01AC
02B7
0199
016E
01B6
FF6F
FCD7
FB44
FAA2
FA43
FA8F
F9DC
FA58
FC63
FE4C
FE78
FFBB
FFF8
FFFD
FEDC
FF59
FF01
003E
00AD
01A9
01CB
01A1
0128
01E6
01ED
025E
0225
00FB
00BA
0034
FDE7
FF7D
FEA4
FF8B
0160
01D3
0117
032C
053E
04A5
05C1
04B2
0569
0484
04B2
03A7
0267
0230
01D9
01AA
0281
01A7
015B
01E4
014C
01B5
0075
0221
0099
0167
0139
015F
015A
0202
FF87
00E1
0381
056C
06EC
07FD
06DC
0698
058C
0456
039B
0215
01E0
0159
0237
019C
02DA
01A9
0298
021E
0243
028C
03A8
051B
0555
05B6
05B8
05F7
0502
061D
05C7
06A4
069D
057C
0606
03FE
040B
0368
0201
0258
0197
0254
0260
01A9
0286
0201
0192
0285
01DD
013F
0271
0254
02AA
0392
02D0
0417
03AE
0375
03FD
038E
0303
035B
0302
02E2
029E
0296
01DC
0356
0127
0150
029B
0282
01B3
0193
00F8
0239
00EA
0206
020F
0233
0202
01F6
0250
022E
02E3
0279
01C9
020F
025F
021D
012A
01D2
01C9
01D9
01D9
01C7
0115
0118
021D
0166
0071
0018
0089
004E
0039
00CA
00B4
0043
00D9
0085
004D
012A
006C
008A
014C
00CF
0021
00B6
0034
FFAE
00E8
0099
0030
FFF8
003E
FFBF
00BA
00AE
0069
FFF9
006D
0077
0003
0006
00AC
015A
0136
0151
0140
006D
00B8
00F3
00BA
0020
00E1
FFC1
0052
0029
006A
00C6
0077
0144
FFB8
00F2
010F
00A7
0083
007F
01AB
0138
0126
0034
00AF
00C2
0026
0079
001A
013E
012B
0066
016D
01BA
00B3
0110
0062
0029
0063
00C9
0154
00B0
007F
0013
0135
006B
00C9
00BE
00E1
0023
0012
FFCF
00EC
012A
0027
0048
0013
008A
00E9
0059
0087
008E
00EE
01A7
014F
0074
014C
0131
0014
0157
0052
005B
00C1
001B
0009
FFBA
0022
0131
0038
FF6E
FF9B
FF4C
FF2E
FEEC
FE04
FD79
0032
0130
02E8
03EB
0435
03E4
0298
032D
025D
019E
00C1
005B
0058
0074
0099
0116
00FB
008C
FFD9
FFC0
0042
0092
FF35
FF61
FDB9
FE9B
FEAB
FFC2
046F
06B9
0A89
0BB3
0EBE
0E2F
0C6C
0AD4
07CA
0582
03E0
03A6
017D
0153
00BE
FFC9
0151
004D
0008
FF95
FFB8
FFD3
FEDF
FE21
FE4C
FE28
FDB8
FE76
FF36
FB76
FC12
F8DB
FB91
FE34
02BF
04B1
0671
06BE
063E
03FA
0390
018A
00AF
009D
004D
0051
00C3
0038
FFCF
FE83
FDED
FE0D
FDE6
FE23
FCBE
FB87
F60B
F2D2
F271
EEB8
F177
F2B5
FAB7
FE9F
0125
035C
0410
04E0
0258
016F
007A
FF8C
002D
0121
00AB
FF1D
FF2D
FF1E
FE7B
FE92
FE65
FD5E
FA83
F99E
F4A2
F39F
F1D0
F07B
F208
F25C
F75D
FD61
0046
0274
0371
04B8
0348
00B2
00B9
019D
0157
0131
FF42
FFA3
FFCC
FD65
FE2D
FE95
FDC8
FF2B
FC19
F9CA
F759
F6AD
F6F3
F721
F6B3
F651
F8FC
FCE9
FE9B
01B3
0275
0360
02FA
00E0
0120
0020
00BB
00E6
FFC4
FED6
FEC6
FE27
FF1B
FE74
FEE7
FDAE
FDF6
FDD0
FD9A
FBCD
FCB3
F98B
F8B9
F7B1
FA51
FD8D
FD67
0174
0196
031D
027A
012C
011D
00F4
00D3
FFD9
0087
FEDD
FE7E
FEB2
FCFE
FE34
FEE1
008B
007F
FCD5
FF1E
FF2F
FF30
FC4B
FAC5
F8C3
FAF9
FAF9
FDA1
0051
0322
03C6
01F7
00DE
0132
0195
0095
0074
FF67
0019
FDA4
FDD1
FF13
001A
00AF
FF3B
00DC
FE32
013A
028E
FE24
FC71
F95B
F501
F86A
FA69
FE18
0253
035E
0312
01CB
005A
FFE5
0104
00E2
00AA
00AC
FFF3
FED0
FE92
FFDF
0151
0041
00C8
01F9
0249
0204
053B
0128
FC69
F944
F45D
F701
FA13
003C
02EF
0515
0580
0259
0202
015D
FFC1
0105
0028
FF96
0047
FF61
00B2
03A4
0267
03B6
0296
0483
03A4
034A
0A9D
0685
00CE
F99A
F3C0
F4D6
FADA
0116
0452
04E2
04BC
026E
01AE
00D1
011C
0093
FFFB
0073
FFF8
004C
01AB
04AC
0622
0489
0421
0432
0454
0A69
0B25
0BB6
0480
F94C
F26E
F7D0
FB11
FF75
02F9
03B5
0504
03DB
00D2
0094
00DA
FFAF
0007
0057
003B
008A
0406
0635
05B9
052F
0609
04C4
06FC
0BBD
0F2D
0C35
0801
FABA
F67F
F98A
FBD2
0057
0145
03CE
0452
02C3
0007
FFF6
00B5
00F0
001A
003B
FF6E
0057
039D
0629
0681
0625
0514
0673
08D5
0A50
0D18
0B31
04EC
FF67
FA3B
FD2F
FD57
FE70
01B7
0267
030F
02EC
0174
00EB
013F
00E8
0008
FFF8
FF8E
FF9C
0219
04ED
059B
07C9
0889
08D5
0AAD
0B31
0B16
0943
032A
0047
FED1
FDB2
FD8A
FFBC
01A9
026E
034B
0303
0197
0126
00AB
FFCD
0052
0085
FE9E
FE92
013F
03F2
0583
07D8
0A25
0B2E
0BED
099B
0A8C
05F8
0622
044A
025A
0162
00E3
FF66
01F2
02C9
0344
0356
017B
0106
00C3
0059
00E4
FFEA
FEA7
FE39
FF37
0145
0386
065F
0937
099A
0904
07BF
05F2
033E
03C2
03AE
034C
0107
0022
01CF
027A
01EB
03C7
02B2
0047
00A0
009E
0138
00E4
FF74
FEB4
FF06
FE11
FEE2
0087
0207
01F2
038B
01D6
01B6
02AF
02D2
040B
02BD
034F
01FE
0203
0173
028E
02CA
0209
0212
00B7
006B
00B4
00DB
FFF0
0039
FFC6
FEAB
FDCA
FEF4
FEE3
FDA9
FED5
FDD3
FEAE
FE7E
013E
0118
02B4
0219
024B
016D
0283
024D
0202
00AB
00D9
017B
004B
FFD5
0082
012B
009A
00A1
0018
FED7
FE43
FDF2
FD1F
FCB1
FB65
FB53
FBD8
FCA6
FE04
00CB
0392
037A
0266
01B9
022E
0145
008E
0093
0046
006A
FFAF
00B7
0091
0018
FFF3
FFEA
0093
FF21
FDCF
FCAA
FAF6
F97E
F8CB
F888
F9ED
FCF6
FE52
FE81
FFE6
FE51
FDC9
FDC3
FE74
FFF7
FED8
0015
FFAD
002C
FFB9
FFDE
0130
00FC
0088
0103
00BD
0076
FE96
FD5C
FBB6
F9CD
F732
F502
F4CB
F4EB
F3D9
F4A4
F5F0
F71A
F80D
F913
FAD1
FC49
FE8B
FF3D
00A8
FFC3
00C8
007B
0194
012C
FF94
FFAC
0044
FF8B
00BC
FF2C
FE94
FE7E
FE05
FC24
FC30
FB72
FCB6
FBD9
FAE9
FD55
FD0E
FE8D
FF5E
FFD8
FF8F
000A
007B
0113
010F
00EE
007A
0040
00AA
00E4
00E4
001D
FFED
0040
00CF
00CF
00DC
FFEF
0031
FF9C
0042
0117
00C0
0080
0085
0069
0093
0075
0147
0078
FFC3
006D
00EF
00D9
0070
FF1B
FDB8
FD96
FE96
FD72
FDFE
FD43
FE59
FE6A
FE0D
FED3
FE5D
FDFC
FE8E
FE27
FDCD
FEB9
FE85
FEC3
FD84
FDB2
FE4E
FEB5
FD70
FE5F
FE17
FDE2
FD79
FD90
FDEE
FE63
FDB5
FE9E
FDCA
FDD8
FDE7
FE6F
FDB2
FE85
FF11
FF9C
FEDA
FDE1
FDC0
FDE1
FDF2
FDB6
FDC7
FE7B
FE79
FE04
FDA2
FE5F
FD45
FDBB
FD89
FD6C
FDF1
FE13
FE48
FEAC
FE74
FE52
FD89
FDC9
FF86
FF07
FD6E
FEDA
FE4F
FDE4
FEC0
FEB4
000A
FED0
FFEF
FEEF
FE8F
FE9F
FDDF
FD54
FDBB
FDC9
FDEA
FE1B
FE8B
FE7B
FE15
FD2B
FD75
FF1F
FD8D
FEE7
FFA7
FFD1
FF83
FF9A
00A6
FE57
FFC5
0221
0218
02A6
01A3
0094
FF78
FEB8
FEBB
FD5B
FE00
FE98
FE87
FE84
FEA3
FE64
FD9E
FE6A
FFF4
FEB5
FFFA
0141
0183
025E
FF4C
FE40
FC44
FC80
FFDF
0131
0055
0024
FCCF
FC7D
FBA4
FD23
FD32
FE0B
FEA4
FE29
FD72
FDEF
FE5E
FDBF
FE66
FDA7
FEE0
012E
0328
04CE
0517
0592
03E5
00BC
FD64
FE8F
007F
0376
033B
FE29
FC2F
FAB3
FA26
FC15
FC73
FF8A
FEB7
FE4A
FE03
FDFA
FDEB
FDEE
FE40
FED6
0027
0156
038A
06E0
0840
07F7
0753
02FC
00F8
040C
048A
0528
0589
022F
FD0B
FD3B
FE83
FEF0
FE92
FF36
FF04
FDAA
FD78
FE41
FEE7
FD50
FE3F
FEB0
018E
0304
04E4
0653
08C9
09FB
05E1
0560
01F9
0152
02E4
0495
04EA
0290
0101
0011
01C7
0287
012B
0056
005D
FDD1
FE2F
FD9C
FDB5
FE9D
FF23
FF68
00D5
0175
0422
04D7
0733
0786
06CC
0326
029A
FDDD
FD5F
0001
FF96
02AE
02B8
04A7
049A
04DC
0254
012B
FFF9
FEB8
FECF
FEB9
FE2A
FE17
FE05
FE3A
00EC
024C
02B2
030D
04F1
0786
06F1
046E
FF99
F964
F703
FBBB
035B
03C1
04F6
07D1
053C
03E4
01E1
00C7
FE1D
FE28
FEF6
FE0A
FEB2
FEDF
FDF2
FEBE
FEC9
0139
015B
025C
0373
05F3
06D8
038F
FE18
F3CA
F067
F98C
0487
066D
0694
07FE
063D
0427
0096
FF48
FF4C
FD5D
FE0C
FE40
FED3
FE21
FF01
FEF6
FEA8
0055
FFF1
0168
04DD
0764
0BA5
05C8
FC57
EE95
F081
FB5E
03A1
070D
07F4
05EE
02C2
00FA
FFD9
FDFF
FD80
FEC8
FD8E
FE53
FEEF
FDE9
FE26
FEA8
FF0F
0076
007B
037A
04AB
0A65
0F26
070B
F8D4
EF7D
F16D
FCEB
084E
08E3
085F
0587
015C
0113
FEAD
FF1A
FE8E
FD7E
FF24
FE3F
FF2A
FE1A
FDD3
FEE0
FEA6
0109
00E2
0409
084E
0C41
1000
0667
F42F
F280
F7CD
FF84
0772
0A89
0977
02EE
00EE
FF4A
FFFC
FEDF
FE8D
FEE6
FE8E
FDAC
FE29
FE40
FE78
FE00
FF0F
0107
02C0
04DC
073B
0CC0
0E3B
04C6
F5B4
F4A6
F94B
0232
0993
0C0B
08D7
03CB
00FB
FFAE
00A8
FF84
FE13
FDA4
FE48
FE1C
FE7D
FE6C
FD4B
FE8C
0057
0195
02A0
0557
079D
0ACC
0AE1
020F
F409
F5D0
FA2C
0655
0BBD
0C30
08A5
04DF
0259
008A
FF21
FEE8
FE93
FECA
FDA4
FE95
FF4A
FE4F
FE9C
FEA8
FF6F
0293
0427
06F6
08C9
0A08
0780
FEDB
F2CA
F56D
FD8D
0641
0C35
0ABD
0925
0408
0248
01AC
0001
FE6C
FEEB
FDF3
FDCA
FE79
FDD7
FDE8
FE9C
FF73
FFFA
026F
0403
0612
04D3
0521
01F6
FA0B
F069
F3B2
FFF9
0987
0E09
0CF3
06CC
03AD
024A
0141
00A3
FF90
FF97
FE4C
FE0F
FE22
FE93
FD95
FEA8
005F
026B
036E
03C0
0345
015D
010B
FF24
F8F6
F292
F8B4
0168
0731
0C44
0A6B
0789
037C
0205
01B7
00E0
FEE6
FF75
FEF4
FD62
FEB7
FE46
FE72
FF8F
008E
0306
03F3
0397
0222
0093
0027
FCDA
F83C
F758
FD37
04B5
0942
0986
0940
06A6
044C
02A2
0202
FFC9
FF5E
FDF3
FDCE
FD0D
FD1F
FE72
FE78
FF76
0081
027D
0403
0396
0226
019F
009B
FD46
FF15
FC76
0010
043E
0726
05B9
06FF
05B9
038C
0280
00E6
0076
FF46
FE48
FE9F
FE51
FDAA
FD7D
FF6E
FF20
006B
0023
01A2
01BA
FF86
FE43
0299
018E
024E
025B
03B2
029C
020E
0314
0454
047F
0224
00D6
0158
FF39
FD98
FE77
FF06
FE33
FDC1
FE34
FDC6
FE8E
FE68
FF00
FF97
001D
003E
0045
031F
04D2
0715
066A
0188
FFDF
FF72
FE47
0009
020C
011E
0098
FFFE
FEA6
FDCB
FD5A
FDC3
FDD5
FF01
FDBF
FE21
FE7B
FD70
FDEA
FF59
FE84
FE12
FE25
0159
02A1
04F4
0299
FDD0
FADE
F95E
FBE4
FDEC
FF4E
FFD9
0049
000F
FE9A
FE00
FE70
FF1C
FD7B
FE48
FD7E
FD98
FDD4
FF00
FEA7
FF20
0055
0061
02F4
0586
0620
060F
04C2
01FF
0013
FF22
FFB7
FF53
FFB6
FF15
FDAA
FE7C
FDC1
FDE0
FE4C
FE37
FEC3
FD36
FE22
FE7B
FDBC
FE52
FEF4
FF59
FFDA
005A
00F0
025C
02C4
0210
02E7
0261
016F
015E
FFB1
FEF2
FE75
FD8D
FE41
FEE3
FEF1
FDF5
FEC4
FE0E
FE30
FE5C
FD56
FDE4
FE49
FE4A
FE91
FF25
FE5C
FE0A
FE7D
FEEC
FF93
FDF7
FE6F
FEAD
FF6D
FEF0
FE09
FD56
FDC1
FD65
FE91
FE6E
FE42
FDD8
FE49
FD74
FDB5
FE9A
FE04
FE59
FD60
FDE8
FF6F
FD6B
FE07
FD4C
FE45
FDAB
FEDD
FE51
FE2A
FD64
FE66
FF7D
FE09
FD93
FDF4
FD39
FD2D
FE38
FDDB
FF55
FF28
FDE2
FE74
00FF
0108
FFF4
0149
00EB
0052
00B6
0053
016C
00D2
00FA
00C9
007B
010F
013A
0167
000B
006D
011C
00C2
020D
0116
01A3
008C
0008
0027
012E
0085
014A
01B7
0146
0123
0138
01AE
0193
003D
00DC
0065
0168
00B1
0093
005E
011C
00D0
009C
004E
0041
011D
00C0
008A
0065
00C4
0097
00FE
00CC
011C
00D2
004F
0128
0036
00CD
00EE
FF8B
01AA
00BF
01DD
00D4
00DE
00D7
0174
00D8
0058
FFEE
0039
0104
00EE
002A
0049
011E
0031
00E2
0136
00A5
00F2
00B0
011C
0056
003D
FFDD
00EE
017F
0082
01F7
017C
02AD
03F0
03D2
0517
041D
0444
0331
03CF
034E
029B
031C
012D
00BF
01A9
00DE
016C
FFF5
008C
0134
00F3
0094
0167
0201
0183
0247
0398
05ED
0705
08FC
08FA
091F
0723
05FA
04F1
020E
010F
00B7
0171
0126
0015
FF87
FF5C
FF9E
0049
010D
010E
00D8
0015
01AC
0101
01DA
029C
0432
07FA
0A4D
0BD2
0AF2
0901
0720
0243
00EA
FE2C
FCD7
FA5F
FC5C
FC4F
FE3D
FDA2
FEC1
0056
FFC3
0063
00B2
00DE
00A6
011E
0166
0108
0317
049A
06C5
07B9
0A98
09E4
079D
0625
04C1
00BD
0179
FF4F
FDDA
FB82
FACF
FB42
FD5E
FE34
FDDC
FDB0
FFCB
FFDB
FF88
005A
0177
00F5
0101
0156
0212
0218
042B
0331
01C4
01A5
0061
FE05
FBF3
FC03
FC2B
FBEB
FBA2
FAA2
F9D0
F8E8
FC12
FCB1
FC46
FA5F
FC02
FF07
015E
011A
00A1
008D
0004
00CC
009A
003B
FFEA
FDA6
FA3A
F8E8
F7D3
F75C
F8D6
F61E
FAE3
FBC9
FBDC
FE07
FBBD
F88D
FA07
FC02
F968
F89F
FA69
FDD8
016D
0177
FFA9
0176
0084
FFE2
00A0
FE4F
FB88
F8A4
F5D3
F3E7
F20B
F386
F37F
F5E8
F9D8
FD2B
FEBF
003A
FE94
FAEB
F8F0
F869
F7F8
F77C
F9BA
FE42
FFDC
0114
0165
00E1
010B
01D7
FEEB
FCCA
FA26
F480
F3D9
F1A4
F318
F19D
F2A3
F625
FE19
0195
0648
0282
FF40
FC19
F859
F8AC
F777
F84B
FCCD
003A
00CF
00C3
012F
0141
0162
000A
FF49
FD37
FA4E
F6D2
F572
F4C2
F355
F23B
F355
F881
FF88
0770
0A30
0611
FFB0
FA9F
F86C
F78A
F8D9
F9BC
FD84
0005
0107
001E
0078
01B7
004B
0073
FFC9
FCA7
FA90
FBE6
FB99
F90E
F9D1
F742
F74D
FA13
03B4
08F1
0B7B
0830
050F
FE35
FA88
F8B6
F990
F9CC
FE4C
021F
0039
0068
0157
0136
002A
0199
005E
FF53
FF52
FFC8
00AB
FF1D
FF88
FC7C
FE3A
FFD6
049B
0A0B
0B6E
0C64
0753
0464
FF72
FBB5
FA46
FC83
FEF8
0131
0159
001C
0203
0016
00EE
0137
0045
0161
0240
0307
0483
03B0
042C
03EC
04D4
0787
08E1
07CE
0871
0C08
0BA6
0869
021B
FE54
FE61
FE47
FF2E
00B8
009E
0186
0174
004D
017A
0153
0159
02B5
03B1
052B
0557
06E9
05DD
05FF
07AF
08F5
08F9
0711
07EE
0D4C
0ABA
088C
0482
0207
FF4C
FEED
0042
0182
0104
0197
01C6
01E1
017C
0254
02BE
03D9
03E1
0413
0271
0248
0394
0436
077F
079A
07A7
081C
0962
071C
094E
0541
02AA
01F2
0006
00C3
017D
0237
01AE
0085
0151
0099
00DD
024D
04B8
03E0
01EB
00EC
FDF3
FB76
FB25
FD94
00D5
054B
08AB
06C1
04A8
0608
051D
02E5
028F
0452
0291
00FC
0194
02FF
0166
00B4
009D
003F
0110
049F
0449
02E9
01B7
FCAC
F883
F489
F5E3
F7EF
FDE5
057F
0808
07C8
05F8
02D5
00C8
0272
0456
041F
0457
04CA
0440
025E
0082
0154
01A7
00F5
0113
03C1
06CE
02BC
0198
FB21
F94A
F3E2
F526
F5F9
FDFB
0505
07D5
06FF
03E0
01F0
03F3
0447
04EA
063D
054B
0561
033F
02E5
0226
0112
01B9
013E
01F5
0428
0636
05DD
022C
FEB4
FA5A
F691
F508
F746
FC40
023B
0396
04BE
053B
0423
03CD
06AD
0511
0559
04AF
051F
044E
0155
0129
00C3
00B5
0081
023E
04CD
0743
057B
0439
00A9
FFCD
F870
F715
F557
FAAC
FC4A
0014
FEF2
0054
0137
026E
038F
03FC
0561
03B8
04FC
02DD
0240
0091
0084
0108
00D9
0130
03D5
05FC
05A5
05E2
03FB
0186
FD68
F83E
F721
F4E6
F625
F732
F89B
FAE0
FD27
FE9A
0052
01F5
0306
0330
026B
01B7
00F4
008B
0163
0139
0085
016C
0232
02D5
039A
028E
0334
FF33
FF6E
F972
F655
F2D5
F39F
F1A5
F263
F642
F832
FB80
FE4E
0199
0243
0240
018F
0063
0128
0124
FFC0
0181
00C5
020B
00C9
0172
017D
0216
0169
00EA
00C7
FFE6
FF32
FCAF
FAE1
F982
F816
FAC1
FB52
FD6D
FE6C
0085
01AA
0133
019F
FFFC
00E0
006F
01D3
0111
006F
00EA
0086
0105
00ED
00B6
01B7
FF97
0055
00CD
0125
FF7E
0159
FF8C
FDBB
FF16
FEFD
00B3
FF7E
0158
00CB
0105
009B
0111
00A4
018B
0161
007B
0004
0071
00D4
00A8
0141
007F
00DA
FFED
FEE4
FF39
FE9B
FE0D
FDA6
FCBD
FE3B
FEC2
FF92
FF77
0025
01C9
0005
00F2
00CD
019C
018E
00E6
0147
0169
0149
006D
01A8
01B5
0107
FF9B
014B
00FB
0068
0120
00B8
00CA
0045
0072
FFE5
0031
009D
0084
FFE9
013F
0010
01BA
0223
00DE
002A
0068
00F9
004B
0003
FF7A
0177
0001
00ED
00AF
FF6F
00FA
014F
007A
0016
0077
0146
FF8E
0058
FFD5
0067
0079
0099
0078
FF8A
FFCC
0182
0009
FFBA
FFD0
FF6C
0109
FFD1
005E
00D6
FF60
FFF2
0001
0039
0079
00F0
00FF
FF56
00BE
FFCF
FF75
FFF6
0146
FFA3
FFA1
010E
0072
FFCF
00F3
00B3
001F
0062
0048
0000
00C0
FF90
00BB
005A
0039
0098
0134
FFF8
010B
FFE5
0027
0078
FF89
FF85
FF4D
FF77
FEE3
FEC8
FF81
FE86
0001
FFA4
FF49
008D
FFBA
FF35
0017
0077
FFCD
0032
0095
00FC
FFAE
001B
0064
FEEC
FF9E
FF7F
FEB0
FE4A
FE8A
FD0D
FCF8
FCCF
F9C0
F9D6
F9B5
FB68
FD74
FF3A
FF50
0023
00B2
FF80
0070
000B
FF63
0035
FFC8
00A0
00BA
FFFE
00A2
007E
FE33
FEBF
FE7E
FEC3
FE1F
FDE9
FEC9
FCDA
FC9B
FC48
FACA
FDD4
FD87
FFED
012A
011C
00F7
FF77
005F
00B5
0114
0075
009D
00CB
FFE5
00EC
FF5D
FEC4
FED8
FD62
004E
0075
011A
027C
01EE
FE3F
FEA0
FC1D
FE2D
012D
01FE
0152
0250
0203
01C0
019A
0034
004A
006B
FFD9
0026
0062
014C
01C9
FF54
FEE9
0036
FFAF
0282
0325
03D9
03F0
04C3
029F
FFCC
013F
0073
00F8
0293
0344
03F0
050A
0459
02D7
020E
001D
0028
0004
FFE1
00BF
0223
0167
01F9
01BE
02E2
00C5
042C
0383
0567
0577
0420
052F
042C
041C
046F
0474
0656
0744
06DA
079D
07F5
05DD
0199
0084
0075
FFCF
FFF0
01C9
01F0
01EE
02EA
0113
029D
0274
0242
0487
05FB
04C9
058F
085F
0590
04EF
0639
0458
0512
0594
074D
09CF
09E7
05EE
00BD
00A4
01E6
012F
012D
0106
0315
01F3
01AB
0361
03EE
01FA
0251
00B3
01A2
02F8
0610
08D0
0688
0406
0203
03E0
0526
0526
0591
072A
0884
0673
00BD
002D
001E
0083
005B
0188
0131
0263
02BC
01A7
01B1
017E
0012
003E
01EE
04E9
0C18
0B01
06B5
0228
FE97
0075
00CD
01F5
0378
0452
0467
036E
01B9
0178
0195
FFA8
015A
0188
0137
017C
025F
FFD1
0178
0027
FFA6
02AB
05C3
0C94
0FCF
0CEF
03DF
FF96
FD74
FBBC
FD7C
FEC3
FEF1
00DE
0106
01FB
0131
00C5
0068
00CA
00D9
00F8
010A
00E2
FE69
FEDC
FD42
FF8A
FF6E
0132
07FF
0C1C
0F0D
08D7
01A9
FEA5
FA29
FB6D
FBA5
FB7B
FC4C
FE1D
0037
0137
0048
FFDD
0073
0025
010F
00A6
FFBC
FE06
FD34
FBA6
FB08
FB12
FDF5
FF44
05BF
0B3F
0A71
0647
FF13
FB33
F98C
FB45
FAFA
FA1D
FA32
FBEA
FE32
FFF7
00BA
FFB1
FF9A
0128
FFA3
01A5
FE8A
FCB8
F95C
F73B
F816
F84F
F7F3
FACA
00B1
063F
0539
FFF0
FECC
F9E6
FA6A
FB56
F9C9
FC60
FBCA
FCD4
FDA5
0029
018E
001F
0019
0114
0062
00A8
007F
FC76
F8A5
F4D9
F346
F06D
F100
F37B
F82C
FBA2
FD97
FDEA
F9B8
F9B2
FA6E
FCB9
FDF6
FC24
FDCF
FDBC
FF0F
0009
FF82
001B
FFEC
0081
0114
0097
0097
FCDE
F8E7
F560
F419
EFAF
EFB2
F3E6
F7C0
F96F
F9F3
FA8E
F6BF
F80E
FB4F
FD9B
005E
FFA5
FD80
FE08
FDD5
FEB5
0041
003B
000B
000F
FFA9
0239
015A
FEE6
FC6F
F85B
F607
F48F
F1D2
F3DC
F73F
FB2F
F91A
F7FF
F7FE
FA3A
FDAB
00B6
0074
FED9
FE66
FDA6
FCE0
FE1D
FF6B
016C
FFE6
0085
006A
017B
0128
015F
012C
FC40
FB2B
F75C
F5D3
F700
F7AC
F8DC
F90D
F787
F876
F926
FDF0
FFB6
FFB1
FDF6
FCD5
FB6E
FAD0
FE65
FF90
011A
FFB1
FF62
0169
0313
0251
02A8
04CB
02B4
0072
FB9A
FACC
F95C
F9C8
F984
F87F
F61F
F6ED
F8C0
FB91
FE24
FD1F
FE10
FD1A
FA87
FAEC
FE38
FF4B
0089
0136
003C
0173
0203
0148
018A
0534
05EE
0440
011D
001A
FE45
FB58
F9C6
F67F
F6F4
F9C7
F937
FE1A
FDBC
FE00
FDB5
FB7C
FC1E
FD6F
FDCD
FFE6
0103
000C
002C
009E
0210
020F
02CF
05B2
0658
04E0
0703
0481
0215
0166
FDA2
FE81
FCD1
FD89
FFA1
005C
FF0A
FE16
FD34
FCD5
FB7F
FD71
FEE2
FFCA
007E
012A
FF51
FFEF
0163
0008
0114
0397
051B
06F1
08BA
07D1
0843
0786
07E4
080F
07B9
05FB
0445
02D4
0093
FFFF
FDC0
FDC9
FE78
FF4C
0024
00CD
0106
0090
0027
019F
0075
FFFD
00FF
01E6
0370
0546
076F
0BCE
0C92
0D0F
0F11
0FAF
0D60
09DE
0847
0485
032B
0008
FED1
FF35
FF2C
0039
00A6
FFDF
00CC
0081
0153
FFF3
FFC7
00EB
00A0
0329
04A3
046D
060E
060E
0784
08A7
0927
07F0
04AC
0523
01CF
0227
0032
0080
FFFD
0025
004C
FFCF
00EB
FFDE
00C9
0034
0103
0126
011D
00CE
FFEF
017D
0244
02F8
02FA
033D
03C7
0494
0400
03CB
032B
021B
02B5
012B
0166
006C
0153
FFBA
013B
0105
00A6
011F
FFA1
002C
003B
FF72
00D7
FF83
0159
000B
0088
0192
00E0
01B1
0257
0218
029B
018C
02D0
02AD
0377
0201
003C
0012
FFA8
FF9C
0052
0059
00D9
00C6
FF2C
FFCF
0122
00B5
FFE5
0153
007A
0137
FF53
0053
000C
014F
0077
0017
001E
0033
00F5
00C0
00BE
006A
00DD
00D8
FFD3
00EE
FFE2
FFD6
0012
FFD5
FFD7
FFE3
FFBA
FE6E
FE91
FFAD
FFC2
FE44
FDD5
FE70
FFC6
FF17
FECF
FE66
FE9D
FD85
FEEA
FFEA
FFCF
FDD7
FE9D
FEBC
FDF3
FE9A
FEB8
FEAC
FF56
FE8E
FECA
FFBA
FF07
FFEA
FF4D
FF09
FF7E
FEB5
FF24
FFE1
FFDA
FFBB
FF92
FE7E
FFBC
FFD4
0012
FF22
FF96
FF5C
FFFC
FFE1
FEF6
FE3E
FE18
FF32
FF36
FE82
FFAB
FF82
003B
FF73
FE6F
FE75
FE7A
FF8D
FE12
FFCF
FFF9
FFFC
00C1
FFD5
FEE7
FFD6
FFEB
FF32
0019
00A6
00AF
FF47
FF20
FF29
0057
FFC9
FF5E
FF03
FE5B
FF3C
FF0C
FF88
FFC2
FE8C
FF97
0038
FE25
FF76
0081
FF56
FF75
FE28
FCAF
FE28
FE41
FEE0
FE9B
00CE
FFAD
0025
00DA
FFF2
FE84
FDF7
FED1
FED8
FF70
FE6B
FE83
0007
FE4D
FEF3
FFAF
FECF
000C
FF75
FFA6
FEC7
FD8F
FB2D
FA2C
F95C
F886
FAB7
FC2B
FBE4
FC64
FE6B
FE6B
FF0C
FF5F
FF27
FFA0
FE20
FDE7
FFC8
FF3B
FF05
FF42
0087
FEAD
FF74
0061
FF66
FF76
0095
004F
FFC7
0063
002B
010C
0322
01E1
00A5
0070
FE25
FE96
FF48
FE27
FF7F
FEA8
FEA7
FEB5
FFB2
FF0F
FF28
FFAA
FEF6
FEAD
FDD5
FE55
FFD1
FDF0
00D6
00D8
030F
06A0
07CC
0775
09CE
071B
04BD
014F
01CE
0049
FEEE
FEF6
FF66
FEE2
0015
FEA0
FFFB
FEC1
FE78
FEB1
FF71
FDA4
FC9D
FC8A
FAB1
FB73
FD69
FDB1
0114
030E
04D9
0388
0314
0000
FE62
FF74
FD68
FEEC
FEAD
FFC8
0028
FECB
FED5
FEC2
FF48
FF37
FDCB
FDDB
FE4E
FD40
FB9B
FA8E
FCC0
FB5C
FC9A
FFE4
FF23
FD88
FDD2
F885
FB0E
FB09
FAC3
FD50
FCAC
FDE3
FF8C
0091
FF72
005F
FFB3
FEFF
FE6C
FF7B
FE97
FDC2
FD7A
FB50
FCE3
FC01
FD08
FD5F
FE3F
0024
FF32
FCB2
F704
F116
F43C
F7EA
F8C1
FDAB
FF9F
FEF6
00DB
0181
00E8
FFED
FF0D
FF02
FF33
FE9E
FDBB
FD8C
FD93
FD45
FE96
006A
FFD0
0285
0451
0526
016B
FDCE
F428
F300
F513
FA99
FE50
FE91
0163
01B1
01E6
01E2
01B9
0011
FF7C
FEAC
FF14
FF2E
FF89
FCF6
FE22
FE43
0083
02D8
036C
073E
07AD
08FE
0870
01A1
FCBB
FA51
FD3B
006C
0328
03C7
02B7
022B
01D4
016F
012E
FFD2
FE0A
FEFC
FEF3
FDA7
FEA4
FEDD
FCD7
FED3
015F
0403
0570
0A45
0C20
0D8F
0D9D
0B13
063D
05BF
061A
0532
04C9
02F7
01B0
01E1
014C
0170
0052
FE41
FDD9
FF83
0071
FF12
FDBC
FE2A
FE59
0073
03E0
055E
07B0
0969
0CBA
1396
13CA
1247
0F72
0B48
0A5C
0AF8
063E
0150
FF88
001C
00F2
FFAA
0024
FE98
FFB6
FEE9
FEF1
FE9A
FFD6
FFCB
001F
003B
0372
0622
0717
0B02
0DEF
153A
1577
1269
0E85
0863
0876
0A0A
01A8
FF2B
FDC5
FE19
FD68
FEB9
FECA
FE9E
FF14
FE10
FEE5
FE2D
FE5E
FF27
FDDD
00C6
00D1
0285
03A5
05F9
0C8F
0FFE
11BB
0EE4
0B22
0617
0768
034D
FF6A
FAC3
FCE2
FD3D
FDD7
FF4A
FFC2
FECD
FEB1
FFFA
FFCD
FF47
FE69
FFD0
FE02
FE00
FD90
0044
02AA
04A1
08DF
0C56
0B2F
0541
051D
00F7
02B5
0277
FF42
FDA0
FC52
FDEF
FD5A
FE7A
FE31
FFCC
FFCB
FEA7
FF4C
FEA2
FF4D
FDE9
FD5F
FBDB
FB35
FDB4
026E
0542
0833
08D2
067F
005C
FD0C
FDF7
01A2
020D
FEDF
FE50
FEE2
FCF3
FE3C
FDF2
FD65
FEAD
FE5B
FEAE
FF35
FFA3
FEC9
FEB1
FDA4
FA39
FA94
FBA1
008F
030B
0889
06B4
FDD8
F80E
F820
FE6A
FEE9
01DA
01A4
00FD
FFFA
FE70
FCA6
FCD9
FC80
FE13
FF3F
FFE5
FFEA
0028
FED7
FD9C
FD0D
FB83
F946
FB19
FE72
0048
01DC
FEEC
FB42
F6FB
F8AD
FDD6
023D
0376
0340
02BD
FEDB
FCE9
FD2B
FB3F
FCAA
FE39
FFBE
FEC4
FEF8
FFC9
FEDF
FDB8
FE6C
FCC5
F9E4
FB8E
FB23
FD09
FB33
FB92
F7CC
F98D
FBEB
014D
0240
0496
04C4
01DB
FFE0
FC8D
FC45
FAFA
FCCB
FD6E
FEDA
FF8B
FF82
FEF0
0023
FF5B
FDE5
FBEE
FC52
FA47
FA22
FA6E
FD0E
FAD6
FC5E
FF0A
FF5E
0400
0388
043E
0562
0361
0139
FEDB
FE18
FCB8
FD6C
FD76
FFC5
FF88
FF52
FF21
FFF8
FF5F
FDF8
FEE9
FEB4
FC41
FBFE
FBF0
FCEA
FEE9
009D
0432
02F1
016A
0325
03AA
04DF
03AD
021E
FF3F
FDE1
FEBB
FD19
FE4E
FF9E
FF4C
001F
FF54
FF8A
FF26
FF5B
0022
FEFD
FEFD
FF0E
002D
008F
0372
054A
03F2
02C2
02C4
0271
05B7
06EE
0623
042C
00CB
FFD8
FFD4
FF5D
FFB7
FFB4
FF8F
FF6E
FF63
FEF4
FEFF
FE58
FF5A
00A0
002E
00C2
02B4
0420
050E
0463
01ED
01D8
024E
0135
0494
0512
055C
0317
022C
FFB0
FF61
004A
FFB0
FECF
FF25
FFBD
FFB0
FED9
FEFB
FE70
FEA6
FEE4
FCD6
FC8D
FC1E
FBEC
FD3F
FC11
FAC8
FA7C
FB04
FDCE
FFAD
01B6
0205
0025
008A
FEC2
FF02
FF5F
FFBA
FF76
FF48
FF8E
FE39
FF06
FE6E
FF77
FF03
FE03
FE5B
FDF4
FDFB
FC17
FCA9
FCAF
FB5B
FA88
FB66
FC29
FE16
FEC4
FF48
FFA9
FFC7
FE3B
FF49
FFCA
FF86
FF54
FF4B
FE1C
FFB5
FF23
FEF8
FDF1
FE7F
FF3F
FEFB
FE8D
FEA0
FF5C
FDF0
FF3F
FE8A
FCE0
FF4A
FE56
FFC6
FE5D
FE9A
FF40
00E7
001D
FE6D
FFF8
FDEF
FFAC
FF85
0187
0191
003D
01AF
FFCD
0138
0123
00C9
009F
01A8
0115
0194
01D9
FFAE
00FB
01A8
01AA
008E
019F
01A6
FF4D
00C2
FFE1
00B6
0113
FFFB
0044
FF84
0137
0079
00CD
00FA
01AA
0162
FFFD
FFC2
0186
014B
019A
01E2
020B
0079
0193
0190
0089
0155
013B
00AF
000E
002E
FF6A
0000
003C
000D
014A
01FC
00A0
0091
0144
0009
00B3
00C1
010A
0174
01A4
01DF
02BF
02C2
0410
02BF
0395
0387
0344
0320
02F5
02BD
00DA
0157
00BA
014A
0052
00DD
00EE
0192
002F
0005
006E
0068
008D
0134
0165
0151
0243
031D
04C4
041B
04F2
05D5
05BA
05A4
0686
05AA
04BB
05FA
03CA
02E0
00A4
FFF2
0143
01E2
0035
FF31
00CC
0150
0089
0027
00AE
00C9
0118
0180
FFFE
00EE
01AE
0086
FFCD
00BE
01F5
01C6
0251
052D
02BC
03BF
023B
027D
0170
0240
0082
FFF9
FFC3
0156
FFCD
00FB
01C6
FFFB
00A8
FE2E
000D
FE9A
FD71
FE10
FDA3
FF0C
FDA3
FCFB
FE34
FD63
FDDC
FC8D
FDEA
01D6
011E
00C9
02DB
020B
0164
01DE
016E
00C7
010E
014A
00AA
0129
FEFE
FDB8
FC5B
FBB6
FBE6
FC2F
FC30
FC17
FD13
FE4A
01AE
021A
0336
01C8
FF22
FF31
FEE2
0025
0087
03EB
0364
02C1
01F9
00A7
0091
FFAD
0089
FED9
FDF0
FE26
FB9D
FA1B
FB6A
FC86
FB57
FD54
0239
031F
08F7
07BB
0500
003D
FF0A
FD6B
FD4F
FDD7
0002
02FF
0665
045D
0249
FFC9
009C
0011
018C
FFCA
FE65
FBF5
FB70
FB56
FC6F
FC62
FE20
01AB
044A
063B
09F0
064C
0463
FDB0
FA42
F98A
FB58
FBB5
FFCC
02EC
058F
0606
0345
0150
011F
0211
FF98
FF74
FE1A
FD3F
FCE9
FE43
FEBB
0296
0231
0270
03F9
0692
0598
FFFC
F964
F4BD
F47E
F473
F81F
F9EC
FF1C
0284
0473
03C3
028D
013F
0020
000C
00AD
FF7B
FD7B
FD99
FFB7
0217
03C7
0343
039D
03FF
04BE
0414
0080
FB6E
F22B
EF37
EF82
F31C
F4AA
F8A8
FB7E
00A0
026C
0176
0059
01C5
0063
0140
FF70
FFC9
FEC9
FFFD
01BB
0498
0449
058B
049B
047E
044F
0315
0063
FA3B
F338
F069
F05B
F15F
F798
FAA9
FD75
FFE9
028D
01CB
FFE0
00A7
0076
01B5
FFF6
FF82
FF39
0145
02EF
04BD
061B
07C3
068D
02DA
00AA
028A
FDB5
F8B9
F404
F02A
F1D6
F5A2
FB44
FDAE
01EC
0253
017C
00DF
0170
0030
0164
00A9
0176
0084
00AF
01CF
01D1
035E
0525
08F3
07D1
028B
0189
02A8
FF95
F969
F505
F059
F3BD
F850
FD06
FF94
04E6
0419
02B0
016A
0030
0174
0046
00E1
002C
00CC
FEF5
FFB8
FFE4
0146
04DD
0AF7
09CF
040D
007E
FF13
FAD0
F674
F4F4
F514
F782
FA95
FEB5
0256
038B
04F3
02EE
00DC
00E9
FFEE
01CA
00DF
0023
00C4
FFE5
FCFA
FD65
FFE8
05A5
058A
0640
FE42
F949
FBAB
F9A5
F5C7
F5E6
F5DC
F9C1
FD01
FF55
025E
039C
03C5
0227
021B
0071
017F
01FF
0027
00A2
FEA6
FF8F
FEB4
FE1C
FE46
0275
0287
008C
F9CB
F80B
F638
F74D
F4B0
F528
F73F
FBAB
002C
0054
03A8
02AA
0330
0366
01A7
FF84
00DD
012E
01D5
FF89
FFAE
0007
004A
FFE2
0153
0060
FF30
FDFC
F838
F792
F7F4
F8E4
F875
F8F5
FDB5
0263
02A3
05A5
048C
0390
0398
0193
01BF
00A1
0103
0149
00AC
00B6
FFF0
000F
01AE
0386
031A
0018
FF71
FFC5
FCFA
FC3B
FEDD
FEFE
FF03
017F
025D
04A4
0673
0639
0487
049A
02CE
02A2
009B
0057
0155
0128
0103
001D
FFB0
FE86
00F8
05FC
0435
03A5
0276
02F2
03E1
04E3
05C4
0378
04C3
04E5
0672
0544
04E5
05E6
043C
041F
03A5
02EA
0140
01FC
0117
015E
008B
00C1
FF97
FE95
00C3
0320
0398
05F2
060C
067A
0893
0818
0851
0519
0812
0403
04FB
0353
052F
0308
03A7
022E
01B2
0213
0072
FFA2
0094
0080
FFCB
FFD6
0034
FF13
FF46
0224
026D
041D
0656
05A2
073A
05AA
040C
042C
0408
00EB
0200
025E
FFBE
018A
0104
0225
024E
0164
00E8
0138
00FD
012A
0014
0193
FF81
00BF
FE28
FE97
FF42
0104
00A0
FFC3
FE20
FE6D
FDE5
FE22
FA26
FC80
FD0A
FDA1
FF50
FFFC
010C
0046
0059
0059
008D
00B0
FFDA
FFEF
0093
FFDB
0089
FEFE
FF75
FEA7
FE05
FD7F
FE33
FCDD
FBE6
F95D
F970
F8F9
FAF9
F950
FA34
FD11
FDEB
0032
0032
001F
00FE
0188
FF32
0150
008B
00CF
0058
00B2
006D
0009
FFDB
FF9B
FED6
FF26
FF16
FF6B
FFB2
FF04
FEFF
FE1E
FDE8
FE4B
FEEC
FEDE
FEE9
00BC
00BE
0015
0082
007A
0017
0148
00C8
0138
002A
003A
011B
FFA4
000A
0082
001F
FFD2
01FF
009D
0185
01F7
016D
016A
FFE9
00CD
02F1
0247
025E
0133
01B1
00A0
00C5
0058
FFE1
FFDF
0130
006B
012F
00C2
0120
0117
00FB
010A
FFCD
FFD5
005B
0092
00E3
FF25
FFBA
00A0
FF90
0136
0089
0158
FF8A
0087
00CB
017A
0196
006B
0094
FF88
00EA
008F
01B3
01FD
FFB0
007C
001F
0075
0072
017C
FFF7
FFB1
0038
00C3
FF7C
FFC8
FFBD
FFA8
000F
000C
0107
FFCA
000A
002C
011D
008D
0107
00DA
0070
FF55
0101
005D
009A
00E9
0075
00A8
0061
FF5C
0070
0064
01B0
FFFF
019A
00A9
0026
0021
010F
0007
00C5
0055
011F
0054
008D
00D1
0111
000E
0105
0039
FF61
00D2
0056
FFE8
007E
00B8
0109
0086
0109
00A6
0110
00A8
00A4
009A
004B
FFED
000C
003A
FFDC
FFA0
0141
017B
000E
0093
0040
004A
FF71
00A7
FF30
00D8
0064
00BC
000B
00C7
010C
FFE6
00A7
0078
00C8
0198
0157
01AB
0177
0206
00F9
0120
01C7
016E
00F3
00A7
FFD0
FFBD
0018
0088
0109
00CF
0013
004F
007D
007B
00FF
00AE
00FC
00DA
01B0
0226
02BF
031A
0357
025B
02CB
037D
03AE
0342
0290
0303
0235
0119
0033
0153
003E
0091
FF9D
00F9
00D1
001F
FFE9
FF89
0014
0092
00DA
FF89
01B5
0079
0268
01CA
0255
04C6
0435
04C8
04B1
0398
02DE
02BA
004B
001E
FFD8
FF8B
0089
0025
005E
0094
FFB0
00C9
0092
FF51
FEBA
FE8E
FF3E
FE9F
FED4
FC2A
FD7F
FC10
FD3F
FEB1
FFDF
FFEB
021C
00CB
0101
FE86
FF79
FE58
FD3C
FEAC
001A
FFC9
0065
015E
FFEB
0118
FFA1
FE90
FE32
FC9C
FC69
FC25
FAF6
F98C
F8A9
FA60
FCC3
FE5C
FA79
FB8B
FD16
FB92
FBF9
F9F6
FC28
FAD6
FA7E
FBC5
FD55
FFA0
0072
011B
FFAB
00D4
00A7
FEEA
FE58
FF1C
FD5A
FE73
FDE9
FCBE
FE5A
FFFB
008C
0012
0041
FBFF
FC46
FBCE
FA80
FAB2
F84A
F8F5
F8D4
F93E
FBAD
FF41
003C
0034
FFFD
004B
0010
FED6
003A
0015
02C5
026E
0287
032A
03B6
0418
0223
0259
FFBD
FC8D
FB2A
FA11
FA63
F9F3
F99B
F9F2
F99C
F94E
FAF3
FFB6
00A4
006B
0077
0055
0053
00BD
0142
01CE
02AA
0457
07BE
077B
070B
0292
0369
01E4
FFBE
FC1B
FC5A
FD6E
FE6F
FDD5
FD72
FC94
FB4D
FBF0
FDB3
0013
0066
0057
FF69
00EA
0117
0200
02B2
03F1
063B
0778
08A9
06C1
0412
00E0
FD76
FDF2
002E
FEC4
0071
02D6
0324
021B
0209
0078
0002
FF30
FEDE
FF3D
00AC
0070
006F
0185
0061
0339
02D2
045F
0414
04BA
055E
02CC
FD77
F881
FAD9
FD30
0030
0343
0712
09F0
0818
08A2
062B
039E
0060
FFDF
0022
FF98
0150
000F
00FA
008C
01D2
02C1
00F9
02A1
026D
0158
FE8D
F8A6
F4F4
F68F
FACC
FED0
049B
0A29
0BA8
0B1F
0AC9
08B8
05ED
011C
FE12
FF38
00C0
00EB
015A
FFF7
0065
0178
01D9
023D
FF9C
FFA0
FEBB
FBF9
F91D
F295
F429
F618
FE0E
0318
0A50
09EB
095E
09EF
0828
0621
0153
FEA0
FD7F
FE7F
00AA
0135
00F4
0013
0021
FFF6
00A9
014C
FE52
FD6E
FC6B
F975
F5CF
F274
F3F5
FA72
0291
0A22
0BC0
09D9
07F1
0693
00E1
FF1C
FD30
FC89
FD5E
FEFE
004C
018B
0090
0011
006B
00E5
0032
0088
FE44
FD20
FB60
FAE5
F83E
FA2B
FF54
057B
0B84
0D59
0CD5
08E9
0339
000D
FAB0
FB00
FA94
FB32
FD1D
FF7B
00FD
0029
007A
0084
FFBB
00F1
FFEA
FE31
FC3E
FBC1
FDD0
FEAC
00FA
0706
0BDA
0F89
1084
0EC0
0D00
0587
009B
F992
F6E2
F8B6
FA47
FBDD
FD77
006C
0081
0044
FFF8
006F
0197
FF3C
FF82
FE2E
FAF5
FACB
FCAF
02DA
097E
0EE4
12B9
1501
13D2
1126
0BF5
03BF
FB21
F96E
F819
F978
FB3A
FCE7
FF4D
019E
008B
00E1
0097
008E
0145
001B
FDD5
FBCA
F98B
FAE3
FDCF
034F
0AB4
1029
12DD
1305
11B7
0C4F
07A6
FE6A
F91B
F8E8
FB37
FB92
FD8F
FE04
009E
01DF
021B
0105
00F4
00E1
003E
FF01
FE92
FBDC
F8ED
F890
FB6D
0018
05E2
09BC
0AA9
0B4D
0A22
05DD
03FD
FCFA
F9BA
FB2E
FDB5
FCDE
FE2C
00D1
0228
026E
0257
001C
0156
00B1
005F
FF70
FE44
FBCB
F89C
F804
F8DD
FB01
FCEB
FFF5
002A
0079
01A2
0201
FF0D
FAE7
FB0F
FC55
FD2C
FE94
FFDE
019B
02DA
01E1
0175
00D8
0127
00F2
FF6B
FF1C
FEA0
FD01
FAEA
F977
F8DF
F921
F7D0
F7D6
F910
FB54
FDDD
FBCF
FCA6
FCBD
FBFF
FDF7
0029
FE40
01D1
0283
03A0
0260
0172
00B3
0032
FF90
FFB7
00A0
FF97
FDC8
FCB6
F9C1
F8BB
F750
F54D
F721
F510
F864
F8D5
F9CD
FC4A
FA9C
FD5C
FDA4
FDF0
FFC8
0200
021D
0113
00C7
0113
00A6
FF69
FF9D
00B1
002A
FF18
FDCF
FCF5
FCA5
FA84
F8DB
F8E6
F807
F5A5
F5EB
F8A1
FC34
FC9C
FF32
FEAA
FFDA
FF20
0037
017C
022D
00DA
00E9
00B0
0053
FFFE
0001
FFC1
00D1
FFBF
FE7D
FE0B
FD81
FD47
FB9E
FCC2
FD17
FC7C
FE78
FF23
012A
0158
012F
02E8
00D4
00CF
01C7
01B6
FFCD
00B0
FFA9
0123
0054
0054
FF8D
0037
00AE
00D9
0050
00D8
FFC4
0048
01A0
0299
01BF
0322
03F1
0453
0410
04C4
05DD
0557
03F4
01CD
022C
0165
00F6
00D1
0066
003C
0080
FFE7
00E3
FFC9
0040
FFB6
0130
01B2
00C5
01E5
0124
034C
0419
048B
0446
05A6
046F
04BA
042B
02B4
0294
00F4
00F0
0093
006C
FFDE
0040
0078
FF8C
FFF5
FF4B
014D
0037
0058
008A
FFD6
0128
005B
006A
014E
00C4
FF7B
0148
01A6
0139
023B
0121
010C
0066
FFEE
00D9
00CB
005F
FFC5
0069
FFF6
0029
009B
00C6
01DF
014F
0187
0159
00A9
01C2
0078
003C
01AF
01A3
00FE
01AF
0171
019D
00F1
01A6
00F1
01D3
0124
0163
0084
00C8
0094
00EA
009E
0130
00FA
00A7
01E1
00B8
00A9
0166
0112
012D
018C
00AE
00EE
0108
0102
01CB
0216
0189
003D
010F
00BC
01C1
00F3
01B5
0250
01EC
00D0
01A8
015A
01FF
01A7
01A1
00D4
0116
01DA
00E2
01DA
01A6
011A
00F5
016A
0115
00F4
015E
0135
0137
015B
0235
0214
01E7
01CA
0271
01D0
024C
01F2
01DE
0106
0083
0184
0179
0144
0124
00C0
01F1
0136
01E3
0097
00B3
FFA3
FFFA
0007
FF54
FE6D
FF3D
0167
00A6
016F
0364
0383
02E9
0114
01EC
01AE
0154
012F
00AB
0160
0067
0130
0092
012F
00C0
018A
FFD6
FEF0
FE67
FE5D
FD19
FBC2
FBCF
FC40
FD86
FE01
FFBC
00D8
026D
0117
0208
002D
0101
0102
01F6
0126
00BE
0049
00F6
0103
00EA
00F4
010E
002D
FFCA
FE1E
FB21
FA28
F8B5
F714
F70E
F315
F4C0
F5C2
F79D
F7F4
FA78
FD0A
FC63
FE24
FDCA
FF4A
FF49
003F
012C
0015
01B9
00D8
0040
0104
FFCE
FF70
FD56
FC38
FA6F
FA6F
F9CE
F626
F5F4
F573
F54F
F6EA
FA18
F8FA
FAB1
FA84
FB00
FA35
FB39
FCEF
FCCE
FED3
0092
0170
01CE
0120
0158
00F2
FF29
FE99
FE2B
FC4B
FC82
FD2A
FD0B
FD99
FED1
FE50
01EA
FF96
FF88
0260
0016
FDE9
FCC9
FB8F
FB3F
FAFF
FB0C
FD90
004A
00FB
00A2
0200
0122
0074
FF32
FDB3
FDAE
FE66
FECC
FF15
0132
0490
0676
0357
012F
00D1
0248
047C
04B8
01D7
FF8C
FD5B
FC43
FB53
FA95
FDE5
FFB0
00F6
015F
00BA
0154
01D8
FFA1
FF9E
FEC4
00D3
03B1
04F6
0668
0964
0A85
06EC
FFD5
0086
043F
04F9
0452
03D3
00C3
FFEA
FE5C
FDC2
FC34
FDD2
0094
0181
00FE
00DE
0113
0048
FF7B
00BC
01AD
03E1
0596
0733
097B
0D0D
0B75
0383
FBA8
FD5A
01BC
06A3
0774
035A
03DF
0378
0317
01DE
FE85
FF1A
FFE4
01AE
0173
0122
01D2
013E
0192
01C3
049E
0675
0699
09D3
0D05
0EA7
063D
FC64
F3FA
F93F
028B
0842
04D1
0247
0440
0557
0640
0577
028A
FF4E
01BD
015D
00EA
0121
01BA
01D5
021A
0568
089D
0A0C
094D
0B64
0E5B
07F1
FC94
F283
F1C3
F758
0086
055D
057F
0346
039C
072E
0947
0821
0306
014D
00F5
0115
00F7
0100
0106
0196
0275
0777
0ADE
0A7F
0C63
0F5F
0B0E
FF82
F7BB
EF15
EF89
F746
0001
03AC
023D
013A
05C5
0A71
0C25
098C
0583
00B2
00F7
00E2
0151
00EA
0250
0238
032C
073F
0A37
0C86
0D2F
0CC1
094B
FE8E
F3AA
ED2C
F18B
F7B9
FFA5
06D3
04C8
0473
087E
09DE
0BB5
09C2
03AF
00FC
00F7
00C9
01BD
00E4
0107
0132
02AD
070A
08A9
0BCA
0D88
0D4F
06B8
FEA6
F506
F013
F2C1
FBC1
0321
07E2
03E0
03FC
05C6
0947
098D
0726
0312
0001
005C
01AE
0155
0102
0130
00A7
00D2
03E0
06F2
0A50
0B84
0956
06BE
FD9D
F4FE
F096
F693
00A7
054B
043F
023E
0073
040F
05C5
048E
03DF
0141
FF99
0138
016E
00B8
00EA
0004
FFC1
FDB3
0021
01C0
04AE
068F
044C
FFFE
F981
F4DA
F56D
FBED
009C
040C
FF3A
FD80
0017
005C
FFD7
FF69
FF64
FFAA
FF83
0163
0188
0089
0124
008F
FF0B
FC0A
FE29
FEAA
FEF7
0054
FD7F
FAF2
F89C
F62E
FA90
0155
014F
0135
FD6B
FC05
FC93
FD35
FC4B
FBD0
FC8F
FD34
FF05
013D
00F6
013C
021E
0176
FD43
FAF7
FAB7
F8E5
FA12
F9BE
F87C
F6F9
F707
FAEF
FD6C
0315
01FB
FFBF
FBD9
FAEC
FC51
F980
F9CC
FABB
FAE3
FD27
FFB2
01D0
0061
0162
0120
FFDA
FE9A
FB7F
F9D2
F742
F45D
F2D4
F694
F88B
FB01
001E
0384
03FA
FFFE
FE50
FCE7
FABB
FA83
F8BE
FA2C
F992
FC3B
FE40
011D
004D
00ED
00E4
0086
011F
FE03
FCDC
F917
F5B2
F504
F2EB
F454
F785
FB0D
012F
042A
009C
006D
FD52
FCCF
F968
F937
F8E1
FA35
FAC7
FD76
006D
0064
00A1
01CE
0157
0141
00BE
FF6C
FE7D
FBA5
F826
F72F
F60B
F84B
F9A1
FAE6
FB79
FB95
FD67
FA71
FBB4
FB83
FAE8
FBB5
FAE1
FC85
FE25
FF7A
0054
0027
0189
01D8
0074
0152
010B
00F2
FFB7
FE2F
FC51
FB41
FB24
FBD6
FC4C
FCAF
FB2A
FA26
F9E9
F91A
FB54
FB22
FCFA
FE35
FE51
FFDB
00D5
FF8A
00FB
01A0
0114
01B3
00F0
012A
0066
00A8
0096
0138
FF81
0048
00B7
00D0
01B8
FFDF
FE7A
FC79
FB56
FDFB
FFD7
0185
032E
02B1
022B
025A
0100
018D
0125
0164
0185
01BF
0183
00E7
017C
0161
00F1
01DF
025A
04DE
055D
06EC
05B3
058C
0575
0622
0569
059E
05B8
052D
0497
032A
0289
0281
019D
005F
0170
0134
0112
017D
013E
00E5
01CF
01BF
0144
018E
01BC
0283
02F1
038F
03D4
03B9
03AD
03FB
0488
03B6
0234
0319
0274
02D6
01EC
0102
0128
014A
00FC
0113
00A1
012E
010A
019C
0127
016C
00D4
01CE
006D
016A
016F
00F5
0220
0199
0166
0160
00E4
0124
00D5
01BF
009A
01A6
01E3
0103
01CC
01D5
FFF8
0145
00A3
01BE
